node {
  name: "lstm_1_input"
  op: "Placeholder"
  attr {
    key: "dtype"
    value {
      type: DT_FLOAT
    }
  }
  attr {
    key: "shape"
    value {
      shape {
        dim {
          size: -1
        }
        dim {
          size: 30
        }
        dim {
          size: 3
        }
      }
    }
  }
}
node {
  name: "lstm_1/random_uniform/shape"
  op: "Const"
  attr {
    key: "dtype"
    value {
      type: DT_INT32
    }
  }
  attr {
    key: "value"
    value {
      tensor {
        dtype: DT_INT32
        tensor_shape {
          dim {
            size: 2
          }
        }
        tensor_content: "\003\000\000\000\000\001\000\000"
      }
    }
  }
}
node {
  name: "lstm_1/random_uniform/min"
  op: "Const"
  attr {
    key: "dtype"
    value {
      type: DT_FLOAT
    }
  }
  attr {
    key: "value"
    value {
      tensor {
        dtype: DT_FLOAT
        tensor_shape {
        }
        float_val: -0.15220388770103455
      }
    }
  }
}
node {
  name: "lstm_1/random_uniform/max"
  op: "Const"
  attr {
    key: "dtype"
    value {
      type: DT_FLOAT
    }
  }
  attr {
    key: "value"
    value {
      tensor {
        dtype: DT_FLOAT
        tensor_shape {
        }
        float_val: 0.15220388770103455
      }
    }
  }
}
node {
  name: "lstm_1/random_uniform/RandomUniform"
  op: "RandomUniform"
  input: "lstm_1/random_uniform/shape"
  attr {
    key: "T"
    value {
      type: DT_INT32
    }
  }
  attr {
    key: "dtype"
    value {
      type: DT_FLOAT
    }
  }
  attr {
    key: "seed"
    value {
      i: 87654321
    }
  }
  attr {
    key: "seed2"
    value {
      i: 7483752
    }
  }
}
node {
  name: "lstm_1/random_uniform/sub"
  op: "Sub"
  input: "lstm_1/random_uniform/max"
  input: "lstm_1/random_uniform/min"
  attr {
    key: "T"
    value {
      type: DT_FLOAT
    }
  }
}
node {
  name: "lstm_1/random_uniform/mul"
  op: "Mul"
  input: "lstm_1/random_uniform/RandomUniform"
  input: "lstm_1/random_uniform/sub"
  attr {
    key: "T"
    value {
      type: DT_FLOAT
    }
  }
}
node {
  name: "lstm_1/random_uniform"
  op: "Add"
  input: "lstm_1/random_uniform/mul"
  input: "lstm_1/random_uniform/min"
  attr {
    key: "T"
    value {
      type: DT_FLOAT
    }
  }
}
node {
  name: "lstm_1/kernel"
  op: "VariableV2"
  attr {
    key: "container"
    value {
      s: ""
    }
  }
  attr {
    key: "dtype"
    value {
      type: DT_FLOAT
    }
  }
  attr {
    key: "shape"
    value {
      shape {
        dim {
          size: 3
        }
        dim {
          size: 256
        }
      }
    }
  }
  attr {
    key: "shared_name"
    value {
      s: ""
    }
  }
}
node {
  name: "lstm_1/kernel/Assign"
  op: "Assign"
  input: "lstm_1/kernel"
  input: "lstm_1/random_uniform"
  attr {
    key: "T"
    value {
      type: DT_FLOAT
    }
  }
  attr {
    key: "_class"
    value {
      list {
        s: "loc:@lstm_1/kernel"
      }
    }
  }
  attr {
    key: "use_locking"
    value {
      b: true
    }
  }
  attr {
    key: "validate_shape"
    value {
      b: true
    }
  }
}
node {
  name: "lstm_1/kernel/read"
  op: "Identity"
  input: "lstm_1/kernel"
  attr {
    key: "T"
    value {
      type: DT_FLOAT
    }
  }
  attr {
    key: "_class"
    value {
      list {
        s: "loc:@lstm_1/kernel"
      }
    }
  }
}
node {
  name: "lstm_1/recurrent_kernel/initial_value"
  op: "Const"
  attr {
    key: "dtype"
    value {
      type: DT_FLOAT
    }
  }
  attr {
    key: "value"
    value {
      tensor {
        dtype: DT_FLOAT
        tensor_shape {
          dim {
            size: 64
          }
          dim {
            size: 256
          }
        }
        tensor_content: "\037\221\032\275\354\365\000<\277\277\264\274V\315\274=(r$=:\010\250\275\0268\251=q\322\177\271\252s\022\275{d\014\275-So\2755\t)<@e\n\273\037\320\232\274\257\336b=|\237\273=Yp\177=\273\335\010\274)\350\227<\267\224\334=\256\336x<\215^:=\374\037o\275{\001F\274{\357n<\226~\000= N\262\273\007Q+\276\216{\242=\302\356\244=\253/9=\"\242A<\342\036\031\276,k\273\275.\234\270\275\204\372\254=\217\321\365\275z\275\216;\231p\306\275\021\027M=gO\337=\342;a\275\020\202\037=\034\017\364;5\335\345;\r\225O<\277\027\032\274\013\253\001<\362\253\030\2749g\251<u~\177\275I\265v\275\306b\232\274\246\243\205=\206yp<\n\222\237=\361\271\226<\223S\032\275\316#\352\274\213\326\226=\367@\025\276\221\225\321\274\341\2349\274j=?\275O\343\003\276\335%\236\275\351\210\304::m\000=|\005\344\274v\211\204=5.\332;}\301~;\224\306A=R\344\032\275\203\204i=\r\007\373<3\314\273=g\300\227\274\tF\032<\263\274E;u,w=\347\030Y\275.\034r\274\034\366u=(X\357<%\275\247=\3056\216=\245H\007>\006\332\017=6\321\220=[\345$<*A:\275\217\335\363\275U\017\257;\232UN\275\301\327[\275Ob\022=z\034\346\274\277\245\221=\225AB=\210\035\222\274&f\235\275\334N\323\274\270\240\267=\r\247k=|h#=^\273.\2752\251z<\274\220\310\275\356W\014\276O\342\024\275-\352\240\275\025Ah=\010M\346\275\332e\360\275\377\326\233=\334\373h\273V\357\005=\222\267\220\274q\262q<\267\270\302=6\262\356;iy\036<\373M\252<\236<V\275\240\236\351\274\'W\312=}f\250\274\023g_\274\261bC\276\223{s<\244\0229\276\221\3439\275?\244-\275\300f\023=\244\367\234\274*\245\261\275hV\221\275\002\243\177\275\022\214\234\274\236 \014\276\315M(\274c\320\320=\350\345\341\274\034\212\341\275Gi\215\275\225\027\n\275\304\321T=\356h\216\275\204|\346\274\036\371p<?}\241=\001\317\366=\200\233\321\273=\225\346=F\021\214\275\335\313\250<\302\370p\275\001\313*<\2217\207\275\214\262\322\272c#\003<\304\325\363<O \275<@\367\240\275:\236\016<\033\024@\273\371\276Z<\352\013R=\251\360\237=\263O\227\273\217\037\030=2,\251=\2727\223\275vWs\275\214d\024\274&\225\201=#\3059=Z\265\006:Vz\320\275d\246\311<\252\344k\275\342\032\227=\010(q=\014\341\206=\010xT;\014;\327\274\nEZ=\336\022\007\276\245-\304<5\007\310\274AC\214=\013\342\014\2758`\230=\366\220\214\275\215\316\312\275&L\343\275\266\307\343=\311G\207\273{\322\262\275\303c\325\273%e\312\275c\312#>\007\n\002\275\rG\t=\342\200\362\274\236\203,\272\210;\200\272U$\262\273\223qi\274~\326\210\274\354\336k\275\022~!=p,\334\273\201,\377\275\263\255j<\306\272`\275\3069\n=C\222\232\275\272\202\226<\275@\'<\031_\226\274\204t\222<\227:\227\275\244\024\363\274\323\376\260;\251\276\206<3\327\326\274D\271\257<9\255\246\275\344\342s=\220\033E\275\276\302\t\2769\267\031=|\000?\274x\264\275\274\311\341X=A\352R\271\220\331\311\275\223pz=\n\206\232\2747\010!\275\316\207\252\275\346\366\207\274\364}q=_\253\275<\212Q=\275+\264\250=\201\214\312<\270\n\320=\315\034\233\274+\014\016<\363D\350;k\274\005\275\314@\317\274\247\003\212=\334\253\313\273i%]<\320\320\250<\r\376\321:\301\r\332<\273\007r<\261\025\247=\367\346@\275[\007\244=\350\336\374\274\360\207\036=\305\300\250\275,k\244=\035\255\017=\366M\307=\254\322\224\274\252\263\204\271\273\342{\275\315\350\254:\264\314\201\275j\223\261=\027\342\002\274\t\000\236\275G?\261\275ba\362;\251\232#\275\034\351y\2753\025\242\275C\305\251=\235\240\n=\333S\347;\232\305\347=\025\177%=\344@\264=\003h\001<\334]\331\275v\230\024=\203\341\245<\252\236\237<\n.\235=\035\030\240\274\304\377{\275\273\275\251\274\274\257\024=\033a\244\274\227\347o=^\370V\275\"\350b\275\327\355\242\275\214\333U\275\230IZ\274\312\245\273=\216L\223\275\305q\300\275\363&L=\271\247!<\000\305\213<\320\217\241<\316\231\263\275\0326<>c\016\203=\2112+<\240I\037<\373\r\207=AP[=\"yb=\347\263p\275\342\354U=\033\302\302=\245\027\323=\262\032\007\2753\360\346\274\027\351\367\274&\001y\275\346\212]\274\373~\371<\221\212\016\275\364:n=4\331[;\302\237h\275\375*\206\275\306\"\217\275\232\221\363:u\333v\275\220\317,\275ou\254\274\324\212\021=%\272\355<J`\n>\305i\276\274\307G)={T\035\275\332\037\344<\210\311,=\370\345-\273\037\224\005\275`\027\211\275\361m\250\275\227\262\n\276\250\224\311\275\301Y\247\274\377(-\275@\034\300\274\366\303\005\274\203\370\226\273\375E\235<EMh\275\271\213\340;\010\336\323\274\365dk=4;\240<\273\363L\274\340]\030\275\352\273\314\275D\330z=\220\007\363\274\035\252\262\275V\024\002\275\231Vo\275\210\320\002=*\022\263\274\203{>=\274\337\303;\343\230\211\274\361\307\246\274z\247\256\275\343\233\354=+~\356<fN\273\275c\300\035=\202\210\321:\321\273\327=\213\360\202\274](\223<\241\312\214=\024C@\274\304K\210<\322\322`=v\267T\275\023\3373=\363#\357\2752(\220\274B\222\304\273\233\021\034\274\365kS\275h\270\234\275\353hM\274\335=\375\274FS\246\274J\3072=\307\026\336\274\016^\344\274g\tl=q\003\n>\235\021!\275\367\337\227=*\317\212=\322-\007>\233\354\243\274z\273\221<wn$\276\363\0175\275v\333\211\274D\345\232=\264I\354<\300\326J\275?\331\375<@\003\212\275\221\221\022=\324{\n\275\177\346\273=50A=\373\224\311\274/\321\355\275\270\351\353=\330O\203=\341|\034;\254/\357<j\324\022\276\217\000\310\274n\323\200<\223n\237\273w\323\245=r/V=\203U\004\276\177\366\246\275\314W/<\263\211\267=a\177\n\275P\251\004=\315u6\274\234\316\376\273>No\275:\340\324<<\231\224\275\312\002\331=\226\350\242\274\021\027\311<o9\006\276\370\017\377<i\265d=\014Z\213=;W\t=\245\0026\275\264\'y\274Dk?\275\034\022\350\274\n\335Y=\241<\016\275\024(G<[\010\222=\013\314\205=Z\374\264\274\236*\314=\n\003\003\275#\t\317\275s\346\002>\313Y\272\275\036\304a\275\323\323\271=\021u\273=\270\306L\275L\363b\275\312T\017=\310\031\225<T\321\360\275$\265\032\275\260\3557=v\\==\375\270\303\274\203\342\244\275\343\207\357\274@t\232\275\2146\021<\375\243\217<\027\021\013\276\212\025\177=\271m\240\274\310\255\304=#^\204=j*v=\031\317\211\274d\332\200\275\272\321\032\275\247\003\300<;\317N\275\033\224V\275(F =\346\"z\275\315\232\314\2748\005\222\2750\242\035\276\3633*\276\312\206\352\275\232\202\226\275\016\334}\274\372\000\277<\030\327\025\274\333-\356=\032b}=m\025\023\275\014\302h\275\370G\231\273f\3144\274\\\354\341\274\215s\276=\370\365p<b4\234<S\004\325\272\327z\342=\340\307f\275\247o\276\275\201~X\274l\305\032\276\2514\321\275\360\333q\273\376\377\177=\340\025\\\274V\0256\275P\231O\275\3257\265=W\005\302\275?\211w=\230\353T\275\307\022z\275#\371\237\275h\374\322;\027\230\216=\352S\372\274\246\025\300<\212\004\256\275\021\'\224\274\nv\326\273\007\260\371<{\334\213\275\313\335\231\275\207E\\\275p\213\316:i\367\033=\221\223\r=&\327\261=\225rd\275\3547\306\274\270\327\217={~9\274K\304.=@:\200=\262\271.\275\237\022\026<\254R\201\273-\326\320\275og\005>\240\256Y\275\272\247\035\272\353\227/=\345%0\275#j\207\275\211\r\260\275a\277\205<hag\275\004\276\306<\336L\205\275\2031m\275~\2479=\002H\005>L3\253\275\231\300A=\371_a\275\311\274j\273\327\002\215\275H\003\032<\260>\006\275\315\376%=\025\212\032<\355Nl\275)\345F9\243\355z\275\230\312\270=\014\203\372\272\347\265\270\274uq\337<M\034\207\275\274\357\026\276\271\347\014\275\364\264i\275*\005\207\274\222\245\r<B\227\202;\034V\333\274\245q\374\275\306V\264\275\024o\262\273u\014\350\275\362\277J=\210\017\024\275\263H\224\275\251\201E=\343\276\270=;\305\226\275\213\334\330=\005\351\022\275\313I\206<\351\351y=Om\277\275xT\242\275\327m\270\275z\207\005\275\301:E<dr`\275\261:\375=@v\'<\022\263\325<\262\270\207\275j\016]\273\261\352\313\274\352\213\364\273\324\366\312\273\312\377\210=X3`\275s\216\220=\004\332\322=Y7b\275,\222\344;/\\\r=tU\245\273\225=$=2\014\355=\357+y\275`,\210\275s\206\255=<\254\362\274\324\037\002\276\200o4\275\\\203s\274`L\245\273\236\323B\274\243IB<\232\374\366;!\003\257<\036\001\245\275\234\306\013\275\357\201\354\275\343\342\315=\016c(=\240\036K=x\243\230=zn\213=\016c\357\275R\320\221<46\246\275}\364`<fY\243\275\320\200\002\275ut\371< \316\205=\254\240\265\274,E%\275\322n\237=\223\371\200\273\270\030\204\275\316\355l=7\270\235\275\334rF\275\202(\325;\tb\275\274\005Oi\273;\367\302=v\t\360<\225o\233=\222\032B=Wf\212\275\360\257S\275G\332\366;o\335\217\274\013\302\264\275\031\314\351\274\214\"\255\275\014\250\004>\017W\303<\200\030%=\204\210\267=\377\023\203=!\r\033>K\347g=n\350\214=\212f\203\275\311\307\303=u|\352=\300\315\032\274c\236\037\275P\250\352\270Y\322p=O\361Q\275oY\007=\260*\304\275\225\323\246=2\027\327\275\275a\213\275\205\207R;\322\204:\275\304!\347=\013\204\345;\366\216F\274!d2\274\346\354\226\274\325X\243\275\352&\005>\256t\007=\230\021\327<\307\256W\275\350\013s\274\316p\202\275\210\351c=\344\351\217\274\3239/\275v\031\206=\303o\202\2741J[\275\026\032\334=\037\"\010\276T\322\003=\230\010\034=e\263\340\274\375d\314\274 \251y\275\315^\251\275\340\007\026\275\263\202t<\036\237Y9+\241\242\274\332e\241=\026\374\347<q\256\017\275\035\021v<\237T\377<\325\315\263=\302\322\'=\241\363\315<\266A<\275\032\315O\274\024\301\251=Z\\\346\274\027\002 \275t\257+<\265B\364\274G\304$\276fj\331\273\302\026\377\274\001\310\377<]|\n>u.\255\275\240\005%\275\364\311\200\275\t\260\274\275g`\020=\307\340;\275AqR\275\317~\304\274\203c\341\275\215\331\021\2767 &=.v\264<\253k\224<\274,)=\010\021\030\274\374\017<\275\033\305\261\274\207\006\343\275\203\001\336:\033|\266<u\3307\275[\2400\274E\341\373<\342\345\362<O\\\274\274\217,\010\275\277\261\245=\026\t,=\'B\356<\\$\022\275\200\313\242;M\004:\275Gs\360=2\341\255=\316,\305\274\354_h\275Ha|\275\030fB=w\371\261<\264\177[=H\323u=yJ!=MEV>B\264F<\032\217\230=\026\005\221\275\334\033\314=\312\313i=\243\313\240=\236+\333<x\212\251<<J\020\275Y\253t=\210\255\322=W\367L\275\237kv<\333[7=\305\3005=\224\221\031=\273\030\262<\353\260\002=w\024\350<\n\037\314=K\232\237=\254\252Z\275\210\205\310\275\272\327,\275\262\035\t\275*2d\275\340\313\326\274\241\314\303\274iQ\367\275s\224\330\274MP\211\275h\311]<\002\t=\274d\013\325<E@\025\275?k\202\275pb\"=\373\351\306\274\313c&\276\240\247\324<,F\202\275g\204\204\275\261<@\275\244P>=\335r\265;\364<\353;\024/\210\275\n\034W;\210\0235\275\326N\323\275\251\017\n\275J\273\202\275\333\341\024\275\261\215\263=:\260T\275Lt+<\335\241\210\275\255>\r=R=a=@\310O\275\301{\224\274\244\301\264=\315\312\213=\206wD=\270\032\216\275\376\031\330<iH\365\2742g\014>1\357[\275\0378\217\274b\303{\275?\304\245=\375\311\001\275)\364\207\2758\262\021\275\202\314\325<\311%\203<\3025\320\275\007\205\304\275\254\010\220\275\022^\013>\242\377\346;p7&=\365\324\343<4ri=\265\020<\275\203#\214=\351d\355=\023In=\207YP\275\224P\266\274\251:\305\274\232e%=\261@\327=\035\247\262\275Z\372\236\274\356\203\036\275\026\303\231<K\310\352\274h~\'=\255\017\252\275\312I\236\275r\263-\274\363e\243<\365<\037\276\237\017\321\274\r\1776=~\324\036\275dnK=\220\2645\275\215\224\212;\237z\021>\357\010\305\274\226\311<\275k\'F=m\325\231\275\323vr=\222\277\264\274p+\273\275\017\n\256=\377\021*\275\322_\212=2\250\231=}\364\037\273\315\2402\275\r>\224=\225=\370\274\323[\301<\214C=\274,\247L\275\244\033\247\275\240S\246\275\255\334r=\357\342\315=lH\205\275n)O=\036&\227=\330t\021\275\023\337\200<-\3638=a\3706\275I\335\215=\016\205\024\275\301tA=\244\316\337=\352\355\361\274?s_\2755\005\"=o\036o=M\353^\274\254\002\261=\352\351\021\275\314\347\231=\332\337\203\274\274\341<<\r\301\263=\226\241G\2754#\210\275\310\245\264<|\005?<8\273\213=k\234\323\274\266F\340=\032S\247\274H\207\177=o\314w\273l\230\311\275\0052\025\275}\216\341<\224MP=\232\006\233\275\264h\272=,\310\253=\251(o\274\224F\005=n\214\216:\t\005\277=\367\303\217<8\274\256\275\003\335\361<\207gk<qe\326\275\231\024\222\275g\376\321==\016v;\251\313P\275\353\254o=|\213X;>\3735=\024\014\243\275\210(:\274\246D\010=]\252\242\275.\'\237\275<\314\020\276\371\027#;\303\271\210\275D\252#=\r\263\254=\"j\227=UO\304\275\350\300\201\275%\t\272<\357\234\\\275*jl\275[\003}=r<\365=\306\337\017\274\267<{\273D\026\007=\240,\357=#\227\316=\270\231\005\274\243\t\214\274\374\237m\2754(\336<}\\\005=\301\021=<P\005g=\246\223\234={\325\276=\305\357\242\275\254rM\274zF\240<\014\245\222\274\346\n\370\274la2\276O\351 \275\203!f\275\010\316Y\274\362\016x=\350\226\223=\345\305-=\326\207E<\034\205Z\275E\t\304\275\3200\335\275F\350\202\275\234\370\001\275\225\243!=\326\020\027=\262h\010\2768\035\302\275C\020\253=\325\342]\275\241U\202\275\'\303\375=)\371\251;\247\025h=s\360\372;{k\211=\301.\202\275\332\200\361=_\037\305<\321\364\226=knX\2744\277$\274\033\257\314\274\005/i\272@1\207=`\250\334\275\206\301\305\275\000\034\371<N\361\000\274\217\275\312\275\204f\204<\003c\322<C&\331<\021\243z=\366\325\254\2743\331\230\275:\300\"=\013\354\327=\247\225\036\274\351\365v<\322\272o=`\310+\275\004c\225\275\270\037\221<\300\013\217\2734\263\022\274\206U\220\275\026\243\313<\341\310\223=\306mR\275\377 \r\2759O\021=\224\341C=^O~=\330\035\240=\0102\311\275\233\034\023;\255\n-\275\256a\202\276A\343\"\271/\205W<\315\377\305\274\315U\r=\026%\371\274\223\250\242<\r7\211\274\030\"\214\274R\224\224=EH\214\275\025!\205=\257Np=*n)\274X\213^\275Y\372]=\331v\t\274\325,\000\275\246l\302<r p=\334\320\341\274\212\3770\2744\377U=\303\222\341=\311\221\310\273\226\211+<Az\231\275\274\365x<(2\004\2756V<=(\312\322\274)l\303\273\341\204C\275\317\343\227\275\210SF=0eJ=\223\201\325;1\321\n\274\373\021\240\273\322\306\004==\331\200\2747\207\213=\217\376\250\274\255\326\372=\200\255\216\274^:\270:\356v*\274R%\002\276\351\232\234\274\210\375J\274\364\025z\274\0220V\275\020\210\342\274X\250\205=>k4=\037S\257=\227(\333\274\200\246\206\274\345\t>=$\315+<\361\025\376=7<\237=\353(<=\034C\222=\203\216\256=\036\332U=g\000e\275\360\371\216<*W9=\305X\356<\025\036\252=|j\333:\340T\223\274*S\340<\245\307\035\274\202\007\230=\365g\331\272=\272+\275\346f\262\275\232\245a\275_&t=}\367\302\275\014h?\275\260\002\\\275\345<\252=\3354\017=Z\320\035\275\342\322\257\274\016\224&\276\201\2037\275zP\031=d\262E\274o\341:=H<\002\274\363w\226;\341\322\235=\003\273\323\274\330R\220\275\250Bl<\037\202\252\275<u\374\2754\300\253\275\017t\274\274\205\222!\275\262\300\305\275\260E;=\2054\203=\351\026\220\275_~\350;&\252\332\275\300\036\253\275#2\317<\342\032\034\275)\330\370\272\370\027\022=\215\000\352<\325%\336<k\010\334=\0021e={\252]\2751\237\267=\2075o=\000\332c\275\253\354\250<N\334\030\274\267\211\361=\025\010\\\275\352\006w<\006\014\266=\033\007\260\275\207\245{;\266\005\235=\215#1=\326\352\220\272A\205@=\224\300\261=1\024\342<\273\003C\275\231\251\274\274\254\3729\275\371/\324=\345\325\212\275\002\376u=\034\322}<W\275~=;\023\205=\225\021\034<t\251\210;\220uo=~d\255\275\200\227\222\275\303\373\224;\254f\014>n)\250\275\311=\232\274\251\345\033<}!\316=\360Le\275\340\232i\274]\255\203=\275x\206=\352RA\275Wo\205=\177\275\307=|g\303;\ry\204\275\213\005\376<\226\250\222\274\300\326b\275wr\340=S\0314>\272\373%>\337G\034\274\267hZ=\274\303\213<\220\301n;\3062\241=\221\216\201\274\326\225\373<j3];\313{\221\2754\265\035=\201tr=\240\214\245=\007\200\347=\21168>\360\244+\276\370)\356\272U\272`=\226\364\353=\230\352e=Ek\235=d\n\342<\375|\037\275\235N:\275\342\237t=\227\311}\275#\212]=\302}\232<\0037\244\274\237RR>\313\234\030\275\t~&=}\344\027\273\351\203b\275S\037G\274\234\313\270=\303\267\017\275gE\345<\007\355Q=\314\306x\274C\321\203\274\240\005]\275m\244\226=\334\273\250<\213\001\247<\203\265F\274\273\277g<NA6<G\310R\275\001=\034\275\374\342\211\274\344j\265<\001N/\275\260u\352\274\354\037\344<\033\326a:\231\257J\275=\237\377=\006\2631=U\210I\275q#a<\231;\271\273\235\320\245\2742W\031\276y\007U<y\326\215\275Tu\201\274\337+\234<i\324\320\274\031\037\325\275Jc-=\263`\264\274\324 )\275\307\250\362\275\034\265\010\275gb6\275y\206\227\275\352\260[<J\273\344<4\\\031=\233!\370<\317\363\240=_\312\257<r\251\226\275\2179\326<~Q\020\276x\2142\275B\207\000\276Wu_=\304\'`=\257i\311<\372\032\t=s\364\221<\250\322\034=\250\350C\272\326\340\034=\276\241\226\274NQ\004\274\226\361\333\274\214\244\"=R.\347<9Nw\274\2342\250<3\025\035\275\330\\,\275\237f\246\275\210\226\222\273[\226\235<\rd|=\267\023\254<\271\216\222=\213f\'\275)\276\271<\033\266a<\301O\347=\234\201\311<\203\225\204=D\342\016\275\017\034O\275\r\275;=\371\301\246=f98\275d\367\242<\3319N\275\017$\253\273\317\205\200;\253\375\360\275\250\251\033\275\367\023\331\275\255\214\274<\335t\214\275\344\215\020\275\310 \235\275n\315\326=\251A\215=\003S8=\036u\220<:\216\030>!I\255\274E!\211\275\243a+=\245SY<\343\306\">K\305T\275%\352\324\274\241\306M<+\366u\275\214eu\275:j\356<\346\n\037\273\344\355\304=\356\375\244<\232\255\317=\323T\211=\2128\356\273\352\221\333\275\344\334\010\276\324\260\310<yb\302=\234\346L\273\203-2<\200\362y\273\312\022{<\206\301!<\017\345\177=\3449\373\275\nG\014\274\376f\303=\301s\273\275\017\243(=\013\202\353<\252\263\331\274\201n\362;P\312P\275?\005o=\re\247=\005Yn\275\301\031\211<F\000\236\275\373\355\340=\2477C\275\010y\211\275i[\326<f\207\342\273\217b\254\275\025\004\000\275WX?=i?\230<\212?\272<\277\302\303=\215\210\331\275\321\315\207\275R\022\013=\022\230i\274.O_=m\234+=\360\323\024=\254w^=0\250\272\272\336I\207\274\317\360\004;\030\305\355<\\\256\303=wM\320\274\r/);Z~\003\276\327\376\227=\002W\245<\306\205\243\275\232\233\242\275\014\234\363<\371\224;=\236Rw;\003q\261\275D\222\233\275\n~\214<\024C\"\274\300\346B\275z\324\014\274Y\010\336=\373\313\215\274!\204\360<Y\243\364=\277\272\007\275Q\270\354\274\322/\323\275\336OH=I\317\326;e?\253\274J6\243=\016b\231<\030\213\356<\234\310\364=\274\235\226\275a\273\t\2757\274\233=Z\r\177<\\\362\217\274\237q\220<\345\006\265\275Ee\027>v\342\016\275j\347\256\275\031\217\322\275\036\371\370\274\264,\211<\240{\002\275M\314\252\275\006\212\021=,\372D=\366\241\237<7\325K\275\3167\t\276\277\347\301=(\0335\275\336;\272\275\325\362\234=\031\211\250\274\336\311\207=\222\325\n=\206_\026\275\224|\030\275\362\343\324\274\271\302s\275\002\215.\274>Q\027>\344]\240=\205]\020=\367<\235=t\311\366\275\343\250|=\273/\314=:ze\2753z\210=\002\033\377\274\302\247!=h \321=\206v\006\276o\276\251<\252r#\275\374\307\371\273p\230 =\307\355Q\275\242\013\037\275\025Y#\275_e\305=\241\333R=\274\341\333\2747\336\221=\tH\315\274\364\223\237<\262\354\372\274\356\253\n=\323Ts=\210GS\275\331\221\211=u\206\026<\367I\r\275\336\376\224;e\327q<\234;~\275\240\366o\273\026pk\275q7\032=\236\222\330\274\220\027\301=\223\317\024\275\022\351\026\276\020c>;\007\024\260=\241\001E=\205\303[\275 \240\313\275\227NI\275\323\007\322=r\352a:N\245\356\270^\017\201;s\244\305\274\316\231\203\275U%\304=A\326\014\275s\036\243=\326\366\246\275\314\220O\275\021\271\273\275\241\370\360=\356\344\n\275/0\031\275{`\024=Yh\363\274<\207\227\275l\243\271\275}j\334<\331z\200\275\233\211\221\275[\217\014=\332Z\365\274\211\002\355\2749\016\220\275\002&\355\274\356\024?=`\261p\275\021;t\275\300\221\025\276\211\3330\2750\237\371\275\224\204==\222\'X=KYP\274\3007\341\274\246JI>\035\272\337=\341\036G\2752\3134;h\336\263: \023\271;6\\\235\275\203\254\220\275\312W\3139\207\3437=oO\221:\205\\\027\274\nd]\275\345\344c\275\300\3377<\357\237\202<p\200%=\253\277/=\343\360\246=\366\244\224\275\203\254\357\273\354c\372\275\253\277f:\367\333\225\275\021\370\235\275\2445\377\275f\274\215=\306\3335\275\275\254\214=\034\215\033={\211\216\275Q\010\266=\333\004\232\274;\325\266\274Q{\223\275\316R:\274\205\224\237<\\\037\325\275 \232\266=O\230\222\275\004\355\314<a\326m\274\356\347\214=\004G\260\274\265am<\316e\326<\270\354\213<\327\213\030\274k\207\203<5W\014\274\226\\/\275\327@M\274\371\347p=M\331\370;\221\030\177\275\334\375\264\274\016\251\340\275\336 \304<\252\306v\274\000\201\\\275\224|9=I\304\327;VV\330;\177`\036\276[\271U=\251X\013<\\i\262\275x\240\032=\212\341\215\275\367\214h<\335ur=\366\004\346;Hi\303\275\003\241\245\275\275D\370\274\216W7\276\253`G\274\340N\204=;r\231=\251\355\311\275y\327\301=\000\303\020>\201a\356:f\207\221\273v\312v<\331\333\262\274\210\324\220\275\345X\247\275\245\374\315<\010\214V\275\236>\375<\232\211\366\274\327c\303=*n\334\273\315{n=\017r\265\275\204\033\"=Ad\r\274\324\022\360=\345(Q<\364\020\352\274\254\005\033\275p2{=pZ\306\274+\266w\275\360\201\302\275GH \275\037q@\274SW\234\275\235G)\276\215\315V<\022i\220\275\361\022<\275\r\207\231\275w\2314=\003q\232\272\3041\341<\367\331\315\275\226\321\347\274\000\2414\275>\266\266\274,2\235=Nk>\274\363\010\235=\360qK=\030V\231\2752\331-<,\275Q:q\245\235\275Sk\222\275\325\356\007=\327b\222<k\000/\275S\373\310=\014\177\263\273\'\353\003<\270\036\204=\373\2067=M.\221=\351[5;8\216V=h]\344=\376\373s=\260L\2669\006OC=uIF=\332?\330<o7\274=\204\2262<`>3=FS/<d(\221=e\3253\275\3573\225;\345\323~=\372?\221\275\200\217\014\275u\"\377\274\224\363\t>1GD<\300G\217\272\2571q=\372B\263<pt\030\274\206H\331;xz\347<\026\253F;\346\214b\275#s\231=\324\177\314=\177\207\026;P\217\023=e:\234<\347\251\211=\263jR\275\'\313 \274_a\010\275\330?\356\274\230\022@=q\2239=\\\377\000=\024\227a\275\026sg<\221\255\303\275\231\375\235\275\356\362\177\274\340+\243\274\261\177$=d\351\266<Kj\232=\026nj<\361\000\245<\332\003\006>|i\252=\324\265\206=\216_\005\275\365\337g\275\225mg\275\237\205\224=\302\267\320\275\267F\256\274\236<k\275\306EF=\rM8\276\313\373m=U+\232=\023NM\275\245\250\226\275*\006\271\270\3048\006\276\"\222\377\275\204&\251\273\327\340_<t\225@;\344>\204\275\342\256\031\275\014\261\215\275\t\273\362\275|\200\250\275S%\213<\005m\347<P\352\033\275W\020\220\275\031a\314\275\326/,\275\371/\211\275\300h\217\274\222\367*=a\336\263\275\032\273\313\275\000\222\022\276\006\325\266\274\217\207\034\274\250; = \331\310\274\020f\007=qk\267<+j\235\275D\231\205\2752o\255\275w\007\344\275\316[=\274d\272\304\275&\215\255\274z\224A\276\315\226\351<\304(|<\225\0167\275\366\243\245\275_2\207\274N3\035=\302\312\307\273\352l<9\014\231\007<\251\007\234\275\250\020\363\275\325e\371\275i\373+=:\311\255\274x\014\036=\227\237\007\275\221\036\257\273\366\244\312;\274\024\340\274:\321\233\275B\322\227\275g\301\304<3\316\317\274/O\216<\326\373\335<(}\025=\307\205\224=B\010\25098\022\256\274d\3449=D\226\377\274)_\351;\203\247:\2757\364\024=\327\3555=\030\365a\275\341\026\244\275\235{\316\274:v\'>,\316u=\361\260R\275K\344E<\356-\267=\360\244\356\275O\016\311=\206n\024>\266\247\227\275\362\252\210=(\237\r;\005Q\204\275$\255\237\274\216\352\372\274\202\206^\275\027\357\353\274J\316h=\027\327\002=\240\3558\273\263\355\301\275\334\017\004=\3022F\275\374\260d<\003,`\275V\353|<\200\360r\275\317e\354<o\230\320=\330\225\034=_;\206\273j\315\r\275\365\t\217=\247\311/\274\230:\226=5$\331\274y\233\335\275\203\252#>\0165_\274\271k\210\274X\251\254<\340J+\275r|\005=\377\344\241\275s\340\357\274\022\326\013\274\010\231\263<\302\320\223=Pm\027<\3269\002=o\200l=\245\354\375\275Q\320\206=\346\356R<&\207\252\274\330ZB\275d \027=7\337\247<m\346\232\275\316\261\337\274\207\226G=\014xa\275O\320y=\370\303\313\2747D\265<\375\342\200<\177\022\252=\213\216\177;\017:\\<B\321t\2746\323\017\275\211p\205<\013\023\236\271\217.~\274h\025*\276rG\206\274\211\246\202\275y<\243\272\234\310\030\275\016\003\001\274\257\313\305\274\316\314\225<\364m\302\274\220J\316=C\233\240\275W\352\331<3p\031>{\261g\274\303\367f=\030\224B=}\3708\275\276\023+=p\031\212\275\021e\347=\032r?\275\002\322\007\275Yg-\275\265nU\274e\210m\275U\245*=\367X\306\274\365\336~;\244A@\275P\236\213\275zS\350\274C\022P\275\363\354\t>\242\200?=\337\343\315<\265\217\324\274<\212\\\275J\205\315<\024\256\t=\024\rS=\314\255\264\274\274\356)\275\004\200\275=\343\272\007=D\213e\275\341\233{\275z\t\252=\374\017\006>\\\335\251<\357\365I<40\367\274\334\r\303\2750V\237\274\332R\265\274J\025\250=\303\370\265=\235\361g;M\326><\2032\037>\"\310\252=\254\203\332=\235Q~\274k/\006=&Y@\2735$\257=\177U\237</\025:\275\310b\";\334\203,<\221\263\264\274\350\272\r>P\306\205=|Y =\0315\202\275\202\212\216\275 &\264\275>\017\026=\345\026\240\274J\250 \275|b\256\275t\377\316<\372D\020=\227\021h;@[3<\027\373\017\274\335\021\004<\365yg=\325\032\031\275G_\275\274\210\265\223=\r\022\341\274\317V\361<z\235\346\274q\253\'=\254KO\275\216r\355;\310#\251\2755! \274X\274\251\275.\002\332<\207\267\315\275\025A\024\275g\331(<\035\353%\2755\365\231=g\372\035\275\0169%<\321\205h<\217.\215\273e\202\235=8o\260\275&E\257\274\244+s\274#\023\025\275\214\016q\275\310\236\320\275\273:\330\275\003+\213\275&\024k=\250,\304=\202\324\022\275\017CI>\364\3724\275S\035\004\276\371K\260\274jW\311\274\236\365\367<x\256\215\275\017\017\315=6C[\275\214\n$=\372\241\222;\310\313O\275\365\265L=K\277\246=\"X\t\276\214\243\350\273\301/\202<\267O\005\274\344\313H=;z\364\275\313\321\243\275\036\262\203\274X\324\357<\204\234\337<\214\367G>\037\226n\274\370\007\260<\360$\030=\3011\262<\307\010\305=\246Ye\275\253:\225=X\373\337\274p!\326;\245\270\020=@)#\275\177s\036=\376\221.=\311\363);\366j\313\275\3534\307\274\014:\263=\026\332\222\274\371J\272<L\245\363;\234\305M<c\320\306=I\300\244\275\320L\327=\224\273\210=\327\222\223=#\002\375\275\324hc\275\300\266\031\272\353\363\'\274\302*\344<\276\352\230=\307=\225\271gJ6=\222\010\327<m4B=\222r\223\274\212\361\336\274\273\236,\275\221\236\302<\245t\355\274\006\206]\275\374E\234\274\373 \202\274@\no<\234\211m\274m\243;\275X\'N<\370Z\347;\177\264\210\274&\223\001=\263rp\274|\336.=\"\237\364\274s\253\244=\232\262N<I\301\354\275y\264\000\275\307\333\300\273\340\200:=\001\263J\275\270\372\332\275j<\306\274-\376\222\275f\207<=33G\274\207#3</\002\007\275\2649\361=\025\020U<^[\023\275t\377\r<\267\010\006>\307\337q=*\262\324=\362\311C\275W\373\026<y\031\227\274\217\214\014>\226\n\023=\027E&=r\264\313\275>5K\270ll\002<\223\274\344\273Yz\211\2758$\200\275R\t$\275\302\356\224\275\376\n\325\275\252\301\247\275~@W\275\205+Z\275O\360\346<6\266\215\275\343\377\374\275\247^\205<\252v\t\275\"\254\336\275*p\321<\332\"&;gp\375\274\020\300\255\274!1V=\357\204\346<\360\377\242\274\307o&\275o)9\274=\207\366;\252\004\236=\204\223s\275\224\356\225\275\350\226\236\275\0017\000>\216@h={\021%\274\317xV\2756\321\266\274n\020\035\275\000,\003\276cC\354\274\000f\217\274\370\340m=\357\352\032\2757\374\263=\031\213\016=i\027\r=\032\337\354\275\270\010$>)\303-=\320\367\034>\315\027Q=\235n)=hn\235\274\374\nt=J\326W\275\200\025;\274\207Z\303=\2077\010=W\010?\274(w.<\211\267\277=\004\343;\275\363\237$\275\311\327\246\274\325\301\\=\321\201a=\257\260\274=\246XB\275\236\247\263\273lg\327\275\r6\242=A9\242\275\246\365\337<\305\244\313\275\271\361x=\365\301\335\274u\3705<\315M9\274C\220\313=\240A\237\275CG\360\274S\'k\275\227\244\201\275_\326\017\275\233N\022<\213\343\260\274%\001\353<\341\376\233=q\367\263\274+\311\243\274]\272\342\275\260C(\275fX\t=\255b\352\275\341\207\304\275*1\005>\n`\273\2756\272\223\275\231MZ=_\205\030=9\377\270\275\335\323\000\275O\235\372\274a<)=\330Vi\275\374\263\n\275\032\000G<\365s\010<A\321\360=\320\210\316\274\273\223\237<U \324\275\3340\030:\236Q3\276,\"e=\271\276\004\275kU\275\275\304p\245=\030\213a=\253\334J\274\010\010\366\275\032\274\353<1\306\351\274T\251#\274\034\236\216=\260\213$\275\372\342S=\252\305\326\275\240O\206\275H\242\213\275\240L\020\273\336F\033\275$V\203\275Z_\256<\257\375\235\275(\375\010\276T\203\247<6\270\326=j\236m<\006}\335\274Qt\243\275+U\217\275HB\027\275\243\265~\275 \261k\275\376\207\363\274\245\252\260\275\266)v=\241?\004\276\276\035\027\276q\360\222\275\353\317\267\273\247\017\331<a\r\023\274\201u:\274\t+N\275\333\253\301\273\326\007\260=\307\001V<>\232\276\275\376q\221\275\013\242\005<D\367\320\275\327`j;\025\221\232<\245\375\335<h\302\264\275\335\205P<\366\2165\274r\204p\273\006\362%\275S\017\262=\\\331\336\275N\025O=\345\236\233\275\211\352\271\275\357\243\270\275\322\316\245=qi\220=\325\241\t\275\005@\245=H\350\234\275\n\344\216=\307\006\001=\206\251\203=B\025\217=\235\216j=\327=$<\224\231\227=:\241\322\274\013\210\344<`\302\214\275#\217\020>\245i\357\274\330\276\223\2755\272K=\367fU\275\001\257\n\276\376\240\315\273\021y-;b\211\211=\343\270G\275\367\237G=.\360f\274\'\346\357\274I\313\212\275\005\263\207\274\205\325\246=\251\022\220\275O\247B\275\260\024\033<\311\3402=a\372H\274\330\265\243<\3001\270=\020Q\365\275\006=\037=\2542,>\232\262\253\275m\360\003=\235\314e\274\255\376\r\275\202\017?\275\022\345y\274\203l\310=v\355<\275\327\311\240<\250\303\220\275fA\202\275\367\366\000=\n\304\222\275Z\236\271\275\023\354#\275\345\022\007\275\333\347\200=\313_M\274\370\201\330\274=\211\237==\313\354\274B\360U<\326\214\027>\243H\200\275\177+\307=w\020\275\275\364\037\341;\263b\024=CV\220\275T\026W=\345\202s\274Y\375\244:(\305\226\274\032*\005\2751\270X<5\022\037=\244l\306=\254\004\306\275Jr\367\274\027(b<\337D@\275\0316\304;D\215W;\032\257\000>a|\r\275\357F\n=\261\317w\274sb\246\275\025\033A=\211\263;\272\360\247F\274$mB\275K$\216=\342T\252=\371\244\263=x\366\203\275\325\344\312;\253U\214<\202\t\242\275\'\305\200=\261)\000\275-5\226=\340\304\363=.\227\334\275Y\377\373\2742\377\253\275?UL\275@I\014\275YV\226\275\226\202\311=\245\2639=\367w\235=T7\370<\213\307\216\274\\f,<\343\260\300=W\200N=oB\n\274\003\026\032\275\322\035\022\275\300,)=\364\260\345\275\331\231\177=\3772\025\275\264U\036\274\3724\001=\225\022\214\275\263T\337\274%5\016;\\\273\212=x\031\035=.\344+=\223U\227<\377\2023=\353\036\036=\330\023\237\275\330d\036\274\353\016\231:\302\264\205;\370\262\r\275\205\247\002<\314\253\241=\205>7\274\302\211\372\275\022d\210\275\341\034h<\373\334\207\275\363\014^\275A\242X;\240}><\304\003g\275k{\002=\301\213\267;\203\306\002\273\277\374\307<\013\244\250=\230o\363=fI^\274T\017\261=\035\007\234\274H\222\214=Go\037=S\361\"=\337\201\327<\304\357\277=\231\324\213=\024yd=Ul\343=sE\217\275\020\232\004=\250y\276\274\3647y\275\034\302\\<,~\321\274%\262\257\275\205\363>=b\214+=4\007\304</`\341<\273\332\223\275g\027b\275![\200=\035\341\037=\177\205\363=v2\244\275\204\026`\275\312\322G\275\035\317x=|\223\010=u\343\226<&\343\235<\372L\017=\325\313\205;\373cO<\351\251\245\275\037\206\230\275\205\241D<\334\016\261=O\365\317\275\325\243C=\324\360\227\275=\324\024=\211F\334\275\200\375}\275Ts\274\275\361\2229=\025\007\003\276\010\360\246\275\r\267L=?k\206\274X\363W=\242*v<\354\365\244=;\310\207\275\331l\006=\333\273\366\274\267XW=\305\373M=\254\250\276\274\000le;\236\264\320=9\002T=E\370\252<|\375\260<\205\301\016=!j\013\275\001\353\202=9\006\200<sF\316\274\214\341B=$\"\334\274\262\351\017<\213\242\320\273\0062\200=F\267r\275\357\"==$\3028=\341\351\361\2744\216S<\350OT;\235{w<;\013\213=D\326\007=\240\337\215\275&[\002\275\327\331,\275*\025`\275\305\362\361<-^\226\275zp\006<Ub\213=W\224\241\274\213\325\357\275Kn\001>G\"\346;\250\323a<[y#\275\325qZ\274-\013;\276C\211|=\305*f<\201\300\351\274\tZ\325\275Q:&<2\001M\274\355I_\275H\243\316\275\310QG=\024^0=3<S\275\324x\331<\205)\373\274\265x\022\273\r\022\313=\344vA\275\330x\252\274\305\253\'=+\014\251\275\323\026\026=Lm\256<*|\267\275U\006\257=(\240y=\007\232\344\275\t\231\310=\365W\263\274c\270\021<\252E\263=\3370m=b\\~\275\201\227\366<h\235J=\233\000\225<P\2439\274\335\344\324<\343\302[=b\224\006=9y\200=\014\206\242=\341\343\003\276\234\010\334=es\006>sH\310<\023W\320\272w\320\021=X\250\266=s\353\271=\343\242\317<\374\353\245\2759%\331\275Z\\r<~\370\265\2752\213\215\274f\354\265:\307\375\270\274DQ\275\274\320z\232<\324Li=\371c\017\276B\204h=\223\326\351\274\355\274\006\276\355l\315<I\257\363=\353a\323=\001<,<:.\231=\354\276\002\275\264S\212<\2246\357\274G\"\363;\203\235\374=\002\354\010>?\276\270\274\207\304&\274\261\277e\275\372\316\001\275D\205\353;F0\326=\321\034\020\275\237\032\325\275\356\210\004\276\370\207\201\274\276\360\361=\303\361\354=\227\010\353\275\370\242;=3c\250;\343\347\355=\267\246\224\275\222\340\034=`\310\005\274\245\360\250<\177%}\2749\250e=x\353\212\274\334\002\257:\336%\333\275\214(\345\275\007\351q\275\340B\272\274i\341\352\273\324\232\244=c\026\317\2753^C\275\211\306\333=\2037\341=H\303\023\275\351\030\240\275\212U\032\275\320<\355<\317w\336=\232\027\205\273\n\362\273<p\032\030>\354\336]\273\247\250\337\273\370\200\251\275\02799<\254M^\275F\007\305\275\014G\264\275Qd\216\274\304\036\230<\342}\200;\235\035\034<?g\356<\006\250q<k\332j=m\371H\275\323rG=\327\320\300;Fa\013\2746{\224=$\371\016=\244\304\014\275\365\003\016=\314\342\005=k\271\303<_\030\353\274g\033\032\275\304bV=K\254\207\273D\241p\274\017z\255<\322\002\320;R\301\223\275\322:W<\223\242\274=4\375\'<\210\215\270\275\2400\006=\006\246\215=\021\301\215\275m\273\375\27422\221\274#\214\004=&\272\002\274\301]\353=F\002\345=\0341,=\220\335\006\2752\321\263\274\265\204\'=\017\301\326<\240\256\2129\326\\\254=ck\310=\311\376\375\274\227\253r\275\335@\224<n\2556\276\000\'\217=xJ\207=\0205\252<|w\216=\357\251T;p\"\032=\"\263\354\274Q\240#;\304M\246<mJ\205=\035\323\331==J6\275Z\327\307=\362\261\033<\233\311\253\275\304A\010\275\316\365R\275,\000\365\273\223@\332=(\360?\274cT\261=\361Z\0138\233\034\306\275\351B\222=\'p7=k\023\261=\301h<>\016\231\016\274\314\306\244\275\226]\325\275>\036\'=\2113\256\275\t^5=\265\212J\274\353\213L\274C\351\330;\251$\013<\363\321\222=Tw\025=\362\263%<\367\375\033\275&\353\253\275\337\311\221:\007\225\221\274\323-.=;<\217=\037\340\242=hA\223\275\303\256n\275c\303R\274\234Nc=t\004\344\274\344\\\260=\177$4=\243\361\370\275.L\037>\017\006)\275|\326\000=P6J=\264\026?<\014S{\274\001\237\236=\346\'J=\266\273\352\273\0324\230=\365\262\020\275\315\033\022\275\022\313D\274\351\213\216\275\251c\007\275\357)\302<iNJ=)\"\226=K[c\275\211\241\330\274\2278\030\275\377\225d\275\377G\357\274\353\266\203\275\024\364\264\275\346\220\233=s\225\';\007\211?=\261z\026=)=\227=\202\220{\275\210\003\256=[\3717\275\000\215\243\274M\022J=A\340\036\275\276R\241\274\233q\n\275\026^\221=\262Su=\242h:\274Z\354\347=\363\233\257\274\2015\341\274\374(\260\275j\361\353\274\337\303\033\275\2753\223\275\004F\002=~\374\220;\007 \307\275U\201\237\275\305\351\223\275\357\013\254\275X\305F\275\003\306\331=\203\277 <\352\220\207\275C?\254\274p\"[\273\027\222\304\274\225!\275;\320UB=\032\"\203=\312\240\206=p\251\350=\372\255G\275\311A\245\274\246\035\361\275\0302\235\274=\376\032=\360\323\251\275\342K\375\275O\336\363<_x?\275\t&\004\275\371\231\261\275\006\343\036=d\260!\275T6\254<\2068\240\275^\004\"\2767\336\325=\344\206l=\n\034\237\275\217.\267\275\256\272k\275\231A\024\274JI}=R@\207\275\027\014\360\274\207\207\336<\235\010b=0t\220\275d\275\025=as\017=@\317\375\274:{\001>\314?\203=q\251\252\273\035\n\n\273\000(\330<\036\340\204<\221\333q=\264\r|=\360j\277=/t\234:\217\207{<\247/Y==\"\002\275\232Ve\275\243lq\275#7L>\221<&=K{ <\027\235\310\274|(\261\275\010\277\323=0\362\364;\253\322\241<\252\375\207\275\343\025\005\275R-\032=\353\352n=+r\003\272\324\272\222\273\003C\335\275x.y\272\251M\337\273\227\244\342\275Z\206=\274mp\220\275.\346\335<\0148<\275\013J7:\370\\\302;x\014\217=G\322\222\274\036\364_\275\177L{;o\235\233\2759\003\300\274fa\036\275\266r\346\275\323W\370\275\026\206\257\275i\231@\274\356\027*;A^e=L\316C\273\032\335\246\275\255L\304;\301WD\271K\336\262<\277\252\234\275\002p.9\356o\321\274\004\256\273<%\3558\275\275!\244=\023\330i=\350\206\202=\227\010C=\"\264\322<LW\244;L\311\016\275\212v\370=\246\251^\274c\332\361\274\224\225c=\312\t\244=;\263E\274\244\3455=\337a\227=l\376\213\275\034\244\350=\276\023\327:\013\007.\275!\372\313<\302+\326\275\204\241\003\276\244Z\357\275\201H\332\274 \037==1\311\260=\377\230\030\275\035)\002\274f\277\235\274\211\201\017\271\243\343\'=\364\251\213=\203\302!\274\334L\340<\347\312y<\272\311\244=E\023\r<o\r\366\275\024<a\275\035w\212<\244\271\t=\211:\007;{D\336\275\344\333\n\274\026E\307\274a\304|\275\004\302o\275E9\370\274b\346D<#\215\205\275m\t\201\274s\302h\275\311h.\275\nwE\275\204+\240=X\227\202=\001p\350:\230\235\337<\214\273\275<\370\021.\276K\026\224\275+\227S=~1\343=gk\301<\327\014\267\275\300LZ\275\323\022\311<\325\245C\275\031K\013\275t\302p\275\224\314\307=\356\250\206<:\030^=\315<\371\274]\377\013=\030l\243\275\177.\205=\273~\234\273\\\201<\275\317n\324\274\025}\005=(\365:=\215\241\016=\315\265\273\274\026\366i;Z*\333\271\325\027`<8d\025=\275\354}=\261c\251\275v\335&\275@\226b=s\007\264\272\340hF\275\211\253\313<\251^\223\275\333\001]\274Y\374(>\367\345\\\275\365\205\252<\302\313\177\275e\331H\274!\277W\275*\354\341\274\232S\262\270q\320v=\317\'\006\275\314C\017\275n,\241=\245o\037=0\251R\2755\356\333;\245!\270=\300m\210\275n{\323\275\211r\227<A\3106\275\347 \225\274\300%\302=^A<\275\322\300\243=\330\354\020=L\331\016\276*_\313\2747\267\227\275\333m\367\275}\3779=\263\344\001\275\330\311\005\276\376\331\365\274\024\350`=\343\323\361\273s@\005=XbR\275\262b\252<P+w\275w\222\274\275\240\342q\275Q\304k\275\355\3411\275YQ\0269$\356\235\274\224W\315;Sw\320=-\211\247\275\020\370\367=\214\023\226<c\216d\274\204\342\307\274rhU=\336\2771=\322\0077=\016_\205\274p\277^\275\023h\306=\305\227U<\250\020\257<o\333\257\274\311\343\350;q]\000>\346\215\006=\243\230a=\032\276,\275y!\256:\330\362}<\007\031\022=>x\254<9L\336\275Rd\321\275\0377\374;\274g#=\200\236\204<L\260\361<\032\351\255<\016_\006=0\'d=}cX<\232\237\020=|\366\037\275_v\373=\342\234=\271;\364\377<\235w\310\275\240\233v=\177\377\000\275I\330<<L\r0=l\006!;\261n\351\275\367-\332=\256\370\366=\303\350\304=_WC\275\266L;\275\227\360\223\274J\331\263<\317\341\201=\247H\327\275l\225Y\275]\0063=\304\302\241\274P\001z\275\317G\360\273X\367\341<\032\322:=\0344\t\276\356\313\'=\366UP=\227c7\275\310!\235=(\361C<Db_<C\247w=X\007\344=\223\300E\275b\265\"\274\374\001)=\272\350\262=+\346\223\274r2\216=-\250\210=@L\326<`\313\006=\371E\231\275\302X\354<\335\321o\276\321-\'\275X\205\224=\351\024D\275\245F\264\275\352d\263<\r\nM\275\2057\325<\030\324\333=\303\373\236<\250\337\371;\326\361\201\275\276e?\275\333\362*=Z|x<\'\2642=\272\343\260;\230\353\363;\226Ae\275\177#6=\225\255\201\274\261:F=\207\250\036\276\342\266Z\273G\272\016=\267\371\221<\222Va<\303Y\352\275\356\353\026\276\320\0379<\317\035G;\013p\314<\302\177\030\275\347\273S<\0264\013\2761\273\277=@\223\341\2741\314\322\274g\242\275\274[\254\353<B_\276\275*\342\027>\013Q\006\273\274\251H\275\3106\224\274\2405\236<\266U\336\273\004B`</E\306\275\205~\277=\243&\023\276\335\\b=\236\353\221<\340i\333\274?\267\004>?\026\351=\n,f=\330\2611<\321\267f<\246\346\217<\213$\016=\377W\236=-d\222=\307r\303=3\202\t\275~\223\240=\032\376\260<W\345\351<?\023\212;\306-N\273\\\0063<0\277\210=\256k\014\276\\\366S=j\321\245= \263Z<\304\267\257<\217\212D\275\300\266\211\275\366\252c=5\321\345\274\353\327\262\275\304h\351\274\207\370\317\275\203g\026>\237l%\275<U$=\214\014\353<\031\315e:4\343\215\275\325Co\273\352\233\266\275\260\347D\275\315\314\231=\343\000I\275\032\320M=\036\262C;\252\351\201=\373|\246=\327\261\022\275L\312\005>\246\272w;Lg\007=\354\204\247=\207\342\272;\177\031|;[\250\033=\207VC\274\031c\331\273pc\030\274[\014\3429O\373R<\367a\241=C/\035</\336\307=\341m\303\274T\343\243\274\306\352\212=\200-a\275\205 \272\275\311\214\267=$\230U=w\254D=\370\246\210\275}\177\r\275\263EH=\221B\256<\322\377\n\275\001\342\027=\267q\327\275\317xR=\226\237\232\275\202\257\223\274\274\325!=6s\236<\311\017\272<\377\224\345\275m\365\234\275\033\211\356<\253\201\317\274\364O\313\275\351\311\346\275\315z\344<\341\003\313\275\363\207\341=\010\3012=\333\305\366<\014\271\212=M8\036\276\235\016\035=\321~*\275e\343X=\276ec\275\301\217\344\274\007&M\274\334\261\272;\023\325\212\2740k\033\275w\230\224=[\244\022=\264\231V6\244\354D=\307\207}\275\225\035Q=^\t\213=\032*\t=\221\002\347\274\235\262\241=?\362\315=\001A\205\275EF\017=\205^\376\274\322-\274\274\230\016f=Z\322\215\275d\331b=Os\205\275|\212\356=\275?\036\273\277w\364\273\210\036Q\274\307.\201\275E\241u\275\233\001\033=\335\241\343={\326g=\317\375\302<\370\257\034\275D.B<\340:\307<j\331p\274\300\303\235=\217\211\204\275\'\t\324<\2361\233=d3$=A\214\346=\347~\267\275\264>\253\274\327\353\226;c\236\006=\207\263\205=\214\231\324\2758\201\022>\036=\240\275>\225\240\274E\227\237=\305\254f\274\360\206E=\270\211\037;\317`\233<ND\275:\364\007E=\374\376\227=;\261(=B\366\334=H?q\274\255+\231=^E\265\274a~\203\274#r\035<\034M\331:\257\rd=\277\001f=\341G\203\275\242\317\024\276\215:\254\275\005\010\244\275\233\310\371=\267F\210<H\353\213\2734\317\324<2\214\374;\314\256\017=\241\201\260\275\372\277e<\210\224>;\324\343\215=e\227 \274\204.\217;\313\225\321=\305\257k\275d\350\242=*\277\231\2729S\225\273f(\014\275\031+/\274\'\350\202=\345\242\243\275\373g\200\272\006\204,=\367\312\373<7\335\232=\304\026\232<\341\313\321\274\002\242q\274\206\266\370\275\314p\216\2746\016\311=^7P\275\207\326\235:\220\311]\275\305*\330\274\245\274Q=\220h(\275\346\312\220=\304\260\373\274G\"\234\274I\267\202\275\211\300\241<\036\004\020\274\035\346\256\274\025\016L\274\222\275\346\275I\306\255\274\276m.=R\363\200=\225-\242=U\034O\275\206<\007>\231\300\252\275\035.\210\275\365D\322\274\236}7\275\302\276\352\274\204\322\007=\316\224\204\274\275;\277\275ij\302=W\275U>\031\016\017\275\267WU=4\376,\275\312\220v\274`\371\271\275\031\217\025=\207\306\316=\325m\004<\224\337\200=0\013\303\274CM\246\275-\215~<N/\255\274\375\0302\275\021W\351;\033X>=\203\362\014>-$\246<M\023\335=a\230\336\275h\375\026\275\217Z\202<K|\000\275)\034\t=RF\242=\273\276\335\275v\016\211=\020\026\330;\201v\241\275\344\241\232\274%\r\006\275\316\341L\275\222X2\271o\362\017>9A\231\275\340\032h<\354\245-\275\364\033\314\275\005\257\222\274\323\035\034=\211\312\273\275E\005h\274\t\350x=\277mK\274\243\274\212=\002O\361\274\000v\275\274\300\235\257=\227S\203=Y\317\351\273\005\036\244\274e!\207\275\226\315\342\275l\313\371\275\320?\200\275\372\2464\275\002\324\033\274\324\376\200\275\3175\256=g\017\246=\025\352\023\275%@e\274+\344y\275\260\214\261<B\213\030\276\326s\004\276%\204\371\275c\240\230=f\342\336=\237Q\316=\032{\206\275t\206^=\272\216\353:\2510\251=RCq:qw1\274k\350\212\275-{\345:\323w\350\274\022V\214<\2078\006\275\037r[\274N\214<\274r\342\243<kq\t<\366]j\274\245\\\t>\316\034\024\275\326r>\275m6\257\275e\023@\275\221\303\201\275\355\232\311=f\342s\2758\022\204=A\217\213=/q\356\274\nM\357\274i\273\243\274^\032\231\274\003e\373\275\247L\203=\200\271\352<\222\251\221=\321\021\003>\261\256W\274#\004\030\276\006Sr=Y8x=E\363\254=w\275\317\275\360*}=\"\301\010>\035=U=\276\207\231=\205\001\235<\327\324H\275j\004\230<\300\226|\275\220\346\376=X\375t\275\355\234\370\274!\236U=F\001\202=qR~=v\\v\275\337\327\244<\025\021>=\244\013\n\276\313\273\273;3\227\346\274\330l,=\213\245\002;\317/\221=rk+=\226\241\361<\343#\314;Kh\354;\344\244\323\274\227\n\201\274\214\\\270;\021\356]=\316K]\274$#\007\271\360\007B<\262ob\274J\307\260\274p\347\023>\313\223\256\275\240\r\025\275+\014)=7X<\276\'\207\212\275\315\034\347\273\001\235\312<M\267\254\275L2)=`oW\274\3240\310<@>\232;H\304\366\275\211b\260<\177\317\025=\251GI\275o\342\224\275\274\300\301<\362\032\335\274\006\031\204=\257\204m\274\367\360\353=\021\332r\275\214~\354\275nd\004\276\331\263\301<.xb=\177?\273=\327\243\207=\323\240f=\363p&=.N\261=8\241\314<\337n\345<\202\226\317=[\022\267\274\212\232p=\205\2664\274\331-\227=cN_\275\341\333~\275\000\221\026=\033\254\242;/W\373\272\nf\251=\247\317S=\3347\200\275b\024\202=d\225\240=k\177\227\275\023~\036=q\233~=/\337K\275+\304\232\274\360\363q\275\021\323\327\274 \270\246\275\310\244\235<\352L\221\275]\'\301<M\261\316<\366\335a=\200\344X\275\322{\013\275?*\337\274\270z\037;\376\235\242=\024\320_;\345A\212\274_\233Q==\256\227\274A\344\321=\277!\241=\251\010\330\275K\230\242\274\341\315\n=\264\353\247=\235\356\013\2746,\261=\234\353\226\2750\224P\2741\026\257=\365\222\034=\322T\351\274\035\324\034\274\336,\326\274\374=\306\275\373#\253\275YL\210\275F6,\27545\035\275\035J\031=|X-=g\205}\275\355gd<\356$\030\275\220\263\321\275HBv\275\255\272\036\274\\X|\275\035^\310\274\200u\262<Rf\324\274\222\366\251\275Jq4=%\026\324<\356f\363\273\256\302R\275\375\255\332\274\345 \003\276}:\323\274\324\312!=[\235M\275\216R\032\273\272.5=\250?0\275nGj\275!-6\275\342E\377\274\357j\214\274Bn\320=\352\340\001==\221\005\2764\236\332\275F\212\013>\024A\213\275\263X\215\270\265\306\277\275\215*\244\274\303\177\224=t/\277=X\334\300\274\245-$\275\221\327\357\273.\270\227\274\"\317\301=n\215\353\274\205\001\010=tl\355\273\273O\360\274lFC=\006\203\223<hfP\274_t\241\274z3\215\272\003\267K=\322\303\357=>\316Q\275\227C\342=\265\240\206\275\303U\240\273\315\230\231\274\366e\277=csc\275\233\235\005\274a\237\217\275\036\227\210=\367U\037\275\361\345\014=\215\021\220\274ER\332=3]\302\275\332\360\217\274I\r\224=A!c\275=~<=\201\021H\274\016\316\247=\207\006V<o\nd\275\231\221\014<N(V\275\325D\232=B\336|<CIC=\217\000\215\274\362\205\272<\327\020?=\003\264\254<3\242\210\273z#&\275.\'\336=\340`U=U\234F\273\266<\003\274ZD\240\275P\336H=U~l\275\337\333-=t\304\033\275l,\241;\364\243\242\274\304\251P<\rN\001\274o\344\035>\032\217,\275\201\242m\275\262\327\234\274\267l\344<\320\'\023>\371\377i\275\000\333#>Hh\263=\253F\204=\326!\370\275.*/;\243\303\320<|W\017\275\252\352E<|e(=Y<\252<[z\001=\276\353-\276\336\205\324\273\326\374\250\274\036\264\265<I\306^=\243|\322\275.\027A=\331v\252=\273\203\267\275s\220\027<\373\345Y:\317\327F\274`\306\003=_U\304\274\341\355\022=z\2663=N\267\002\273\213w\251=\364k\227=\372\322\335\274\355\n\032\275*\217\025=\035C\214<\241\226\254=[\311\\\275\214\345\005\275\324\221\252\275\367\350\350=\326\256\247=q\007j<Q\027f=r\223\r\274\033\211\005\274\032\030\203<\r\3503\275a\327\030\275`\022\211=\262\303\014\276R\021\267\274\260\341\274=\226\261q=;.\223\274c\026\206\275\n}\207<\216/\267\274\233{s<I\203\336\275\203S<\275\r\2112=V\272\347\274o!K=\337\240\350<\347cJ\274\305ES\275\246^W\274\346\321\350\274\350q\343\273`j\204<a\252\'=\204\277\263\275\r\265\005>\036\243\017=>Q\225\2732\316\006=\252\255\275<\036\031\247=\331\316\007\275]\360G\275\253\272\224\275\002\\w\273A+\324\275x\006\372\271p\241\033>\201\215\005<\317\227\211\275\016\'\204\272\225\212\277=JfU;V\217/\275Q\0343\275m\365A=\274\351n<\315Sl\275\223\260x=\316\236\301<(c/<\250\352\322:\305/d:\177w4<\374\305\201=2\353\r\275\273\205\206=\232\r\344;\233\326\305=\332\364\356=\376\253\231\275HR\377\274\366O\022;\217p\231\275\254\352;=~IG\275t\273\270\275\2444\210\275\344v:<\252\337\000\275\036\234\252=\356=\321<\363\337j;\177*\323<\277{\037\275\246&\216<(\320\311\275\367\236\212=\341\266\004<\363\215\253;\247\240\307<C\330W;9\364\313=\316\233\232<f{Y=\355\335\276\275L[\232;\277\267\217\2754DQ\274\242\367\000\276j%a<\n\211$>\270R\330\275\"\336v\275\010h\034<,bG=\244\224F\275\312N#\275E\263\334=\361F\032<J3\253\275\016i^<\030\207\017<\3069\255=\3131*\271\017\035\275=\364\256\035>Jj\351\273\2779\307\275\275\347\273=\027\263\307\275k\355\203\275y\347\004=H\'\270=\366X\325<\373\203A\274t\251g\275\355\005r=cV\207=;z\244\275\242\355\017>M\230\212\275\016\0058\274)\237\271\274(\036\303<\000#\364\273\336&\352=<\033\005>\356\233:<X\010\217=\201\220\023\275\236t\r=\247\251\276\275\224$\r\274nz\257\274\300\007\245=w\014\302<\305\005Z=\030\3532\275\370\300R<\020\022\226=\255D\033:a\270\241:_\230j\275\3700\366=\306C\377\273\t\340\017\276T\323u=NP\327\272\023g\244\275\017/\336<-n\021=8\326\247=\277\\W\275\262\0033\275\231V$>\356\345\"=\244\177\231\273\"1\r<\201\036\330\274\005)\321\272\242\262\357\273\010Z\021=h9\007\274,\017^\275\030\r\212=\345\3679=\271\262\204;\3355P\274\327\010\277\274\306\301#\275\266|\201=\255_`\275\227_(=\206\325\226<\r:\273=\222B\214=\255\303q\275\234#\215=P\316\345\274F\' \275\205,\234\274g\330\363<^a\263\274\222N)<\026\305\301<.\201\220=\003\200\222\275\315\367\217\275\234\331\332:\365\017\342;\2108>98\226\022=3\326\317=\307\202\263=\267.\253\274\023<\333\275R\365\030\273\327\273.9Gx\241\275\322YW=\236T\243<X\004\324<o8*\275\206\323\023=\373S\024<\367\311]\275\224\352F\276>\270z\275\207\206&=\250j\212\273V\354\232\275\r\177\007\274w\216\261\275\276\332\310\275\002\213.\275\202H\205=\3537F<\322\255\r=\201\013F\275\233\036a<g\370\346\275\362!\003=\213\225\002\275Q\376a\274\353\264\203\2755d(=\274\024\362\273-\'\270<\n8\034=vr\257\274\275\334\213\274\030\375\003=\352\272\322\275\364\257\232<6\242\345=\213%\236\275\206\340\220\275o,\035\275T\364\307\275\240[\376<o\225\345\274\323\377\213\275T%+\275\256\300B=*@\250\275\363\350d;\263\314\330=&\036G=#\240\237=\253\270\353\2748\376\212;\027\356\260=tpy\275\222\252\235<\210\0045\275\231\014\367=\3065\177=\322@\026=\274\320\031<\270N\217\275\202\001f\274\246m\317\275\231.\006\276c\3224;\321qS=\260\244H=\225\345\001<\277\010\206\275;\271\254\275\324\034\250\275.\223\323<u\311\272= \021\006\275?\r\346\274\312]W<r\340b\275d\212\202\273\327\342\233\274\211\232\265<\356s\324\275k\014\261\274C\256\003\275\215\032#<d\356\010\275\004\\\245<\2767}\275\003\3649\274\252\030%\276\342o\243\274\310\022\241=\023O2>\007M+\275\2650\026;\036\370\t=\2028\033\275\365\300\241\274;S\037\275\024\r\277\275\200\253\206\274\276\325a\273 \216\212\273{(\210=>\244w\275\017\016\033\274\036.\251=x<\220=\037\314\255<K\3701\275t\241\216<6j\245=]f\237\275\216\016\321=\210\036\271=\352;\312=)\177!\274\242\245\007\274Nw9\275H\335\317\275\304S\321<\357\236\363\274\025\275I=G\267\276;y\t\261\273\027\330k=x\322g\275nn\321\274\323\027\016\275\227\032H=\366\214\355\274\347\230q\275\036i\247\2746\266\270\275\251\310\312\275j\231\247\275\223d&=6\266\213\274\364\227,\276bY\331\275\267\306\326<)\327\210\275\2710\314\274\311Dj=\250\320\035<\031\005\272\275\356eY\275\002\347\250<\250C\205\275\001\321\316<c\215\262\274\332\'\206<8[\352\274\354O.<\002M\307=\374\312\225=\371\t\247=\377L]\275\000i^\275\361#w\275\247\301\254\274\007\230w=\225J\005=~\006|=\034\000\270=\000\377\021>\354\245,=\0168\236<\240\027\367\274\007\226\006<_\244V\275PY<\276O\235\177\275\364rU=\\W\331\275\340x\353\274zX\\<\224pU<z\204\007=\304\032\312\275\271\321\274\275\n\204i<\'\303\r\275],d={<\020\275V\314\r\276!\234\366\275\255.\004\275N;\217;\033\363\200\275\335\370\306\275\302sE\275\000\340\266\275\352\260\204:\232\373-=\212/\213\275\004\234U\275{Ir\274\332\375\307=\244\211S\275WFU\274\207\'\n\275\020\261\240\275Z\362(\275\331\355\005>\323\010\203\275\351\321\252=\006\350\227=1z\3079\355\0147\275\376\0101\275\210\310\310\275\335\332\003>\314\016\232\273\224\334P\275\001\343:\275\033\2565\275\261\215L\275E\227j\275\302\335\341=\000\006\236\275\243#Z;j\246\035=\355\264\316\274W\357\261\274\035\273\343<\367\003\346;\"\353{=N\222\236;z\313\347=\211\261\241\275\202\246\026\275\003E\245=M\341\017=_ni=\301\372\243\275xg\234\275 \331*;i-6\275\310\036\000=mo$=\325\302\203\274\352\351\373\275U\177\"\276H=\317\274\254z{\275\263\330\271;E\311\206<2HM\275\260W\263=.#m\275t\321\017\275\\\216\341=\234\322\370\274\017\033\211\274\251\211:\276\227\020\031>\017\034\257=\330\257\026<J\rE\275\263_)<eL\004\274rkd=\257\266|;Xz\251\273\266\262\024>\035\024[=+\304\246\274\235!\377\272\023\241\302\274\201\311\353\273\273t\204\273\301%\220;\356\203\033\275\315\340\244<VV\036=>\032?=\'C\255\2759\227\331\275E\030\370\275\027\234\325=|\263\232\274\374J\226<\333)\221\275\nj\"\275\346\313~\2758\245\224\275IQ;=v\240\257\274\376\353\272\275V\205[<\326$=\274U\220T:\010I\360\274\273%\324\274F \371\273Q\213\004\273\373\230T\273\252+\362\274\226\301\326={\274p=\312\002\006\275\300\301\275<\007Y\201\275\324\274L\275e\247\217\275\3372\037=[+?\275\345~@\272\331w\327=\267\270\000=\032A\230\274\"J\r<wxM\275\314\306)\275\323(\237<G.\211\275\306\244I=R\317\026\274\252\307\247\275\334\256\323<\2342j\274\007I\002\275#yi=T;\336<\237VA\272\003\264\270\274\235\334\003>\242 \366\274\004\223\361;$Y1<r<R<\034Vi;\311\340J\275BW@<\262\000\320<\232\346\"\276\020\315\316=\023\006\306\274@Es=\007\211\375\275\333\371\363\274\264O\230\274\026\206\306=\265\274\226\274\217\201\330<\301\266$\273\001c-\2755k\334= \252\";r%\226=\336\307x=\265\016%=)\023\210=HN\212\275\r}\007\275b\"\224=\205\311\375<I\234\003;S\274\236<\252\205\337\273d\227y\275\3401\317\274\355T\004\275X1\332<\305\263\270<ui\307<3\033j\274u\324\236:\331\000-\275p\370\320=\363\025\210\274\230*\214<[\255\202\275\214\004b\274\274b\232=\257\265v:\324\026\241=,\347^\274\257\361\031=,\346\311<\2055\310\273\005\230\236=0+M=\306\r\024=\266\302\314;\024\303\310\275\303\213\341\275L\034\233\275q^\037\274 \260\027\275\2014Y<\330\032\253=\302UJ=\337\246&\274\244\020\250\274\302\212\342<A\010\352;\264\243\243=\034\271b\273p\315&=|\000>\275\247\364`\275B(\254\274\223C\210<\321G\201=>L\006\275\360\341h\275I\370T=Bv\211<\004H><qJ)=C\235^=\332\376\360=>-\373<\007\274\254;\022\370\271\273\262\007\206;/\262f\275\270\377\320=\245$@=\343]\354=\331d}<\31171>\004\340\331=[\217\014=\314\265\276\275\352\307\331\274\367\"\007\273:\317\205\274M\276\367\275\376\310\352\275\326\025m<)`\260=\363C4\275O{\214\275\366>\324\274d\t\245\275\004\266\237<\016\340\345=\200\304\252\2755\325\314\272\346\022\253=\016)\031\275\240\363\246\275SQ\241\275\006\240\241=\220+\250;DG@<\314\037\323=)\246H=d\034\004>\316<\034=x\314\317\274\"n\336=\3267\221\2759|>\275\014\373\235=\210w\251<\010\261e\275\243\301\213\276\232\313\344\274\267\306E=\344\335\225<\371{\376\274l\371\023\275\352\245z<\\76\275<Y\006\275\204\257\030\275<\013\370<\224\335\035=\253\307\036=\272\177Y\275\233sU=\276\207\217;u\320\270=ri\213<\003\356\362\275\345y\241=X\222\345\273X\367!\275\010\014\366<,\347\252=\274\337\310\274+G\362;\001,V\2754h\375<\200\342\"\275\314\232\234=\351(\006>\252\331@\274\245\262\202\275n;\331<\030`3=l\314a\273X\346T\275\330\367\030<\177*i\274\201\353\221=\036\257J\275Z0\340\273W\201\324<\327\356\203\275\200\005\004=\242\274|==\3134=F\231\335\275H\274\236<\271\025\245\2757\333\331\274\277d\364\274\037c\250;t\341/\275\260\021a<\027\367\311\2743Z\275;\230-D<:\352\312\274\033\310[\272\372\260W;YQ\033\275\r\265\001<-[,=\177\220(\271W\225N\275\364\260\325\274/_\226\275\261\020\251<-Hr\275\'dl=\000\302\204=fX\215\274\364\223r\275Vb\030\2761d\255\2746Wx=\027\006t\274\267\230J\274\036z\306;\201P\002\276\r\237\214<.\324t=\226.\337<\357\3746<\304\002f\274;k\013=\342\330\t=X\363\214\275\250\237\312\273\341\334\035=\351\'\224<\256G1>\354\252\022\275\330\332\006\275\353%}=\212\316m\275f9\306=\343C\320=.`\360<\\&p;\304)\350\274\224!\323\274^z\027=G\021:<\351\333X\275\352\260\310\275\200d+\274\354J]\275\372K6;;_\027\275\363l\r<]\026\362<\207 x\275\331\265\231\275\344QB=A\257\365\274\033[l=\264\310\215;\033\247\231<\210}-=\000\275\247<}@\027\274&\232L=S\245\225=7+\214\275%_\211<\'\366\303=*|\212<l\222\372=H\333\377\2750\025h=\206\301\310\275\364\375l\274!\027\345;\340\312D=O\203n>\340\325\207=e\222\301\274*\373\346\275y\027\205=\253\253\330\274\223pm<\205\341\202=\016\\q\275+\216$=N\260\321=\235\377\231\275>\247\016>\202\326N\274\357\214\302=\016\261\207;\036\212\202\275f)\314;\277Pt\275\340\246\252\2741\375\370\275\030\346\305<F&3\275\303\217\267\274\350Bs<G\237\325\273\207\224\202;\256J\247\275o+\267\275\236O\200=\026\351Q\275\376\240b=\311Y=\275\363\356\221=\225\032C\275\367\274\211\274j\376\000>MJ\320<\302\356\363\273)>}=a<#\275\r\201\331;jg\003=%\313\030\275\345\236\233=\314\n\006<\373\033T\271~\023\311=~`\334\274*\350\350=\250\274\006=\311\230\031<\275\177\323=\241r\203\275\335\213E\275\311{\205\275\212\366G=\361f\326\275\007\337?=/\206\230=K\216/\275\270O\272<\261\025\244<\243m\007\275IS\376\274+y\205<\216\006\261\274\246\265\035=&\242f=\355\026 \276\253\271H>\365\235\256=\035-\372=Q2\377;e/\353=\317|\000\276\353\366H\275\332\276v=\300X\267\275\241\275\227\275T72\275\275\325F\275\256\3242=\220\234?\275\226\303\375\274\355\221*\275*DT=\207\311\217<\375\"x\274\323\324N=`+\026<>w&\276\274\341\210=\201-\364;Y\361\225\275\276\352\223\275j!V\274#\354%=o@\365\274\316\364r=\311U\374\274\3134\211=\023\322\311\275\177\317\230=C\274\027\276L\303\307<\372v\252=\207#<\275\027|\334=o1\376\272\324\270\311=k\213\210=\257\337\221=\305\371\230=\242\247\r=\340L\021\275]Bc<\306G\004;\202\210\206<`\230\234\275\347J\225=P\2062;=\315\240\274\266~\336\275<\224U\274\026D(\275\037\227\253<\347\363Z\275\264\314a\275LRh\274\316\356\361\273H\347\200\274F8\342\272\305\331\324\273\377a\235\274\026\364\311<\034y\177;^\311\206\275\327 R\275\232^\\\274):l\275\213\325\233<\010|\023=\033\353\250<y\236 =P\346\225<\210\264\010=\276\260X<\r /\275\201\373\004=Kv\007\274| \276:#|/\275\244\245\363\273l\257\022\275\347\225\n\275\231\3574=\221}?=l<\336\275(\000\311=\3431\300\274L\231\246=?\207\274\274\3178\336\275\267\022\363<\324\327\332\275\374+\237\275{\320-<H\t\362<\202\225\337=\261(2\276\021\307e=\220\307a=\321\245P=8\213\023\275\2518\310<qn\372=W\312\216<\365\373\226=\245\216#\275K\002;<\365Z\267\274ve\216=\030\2672\274\330u\226\275t\362z=R\205\'=\244\301\202=?\177\233\274\026\024\256=.\226o\274\300\314\236=W\030\361\275\231\214\207\272U\0220=\257\266v=\342\253\177\272\002*\266\2755\375\027\2765\341\206<Y\343\312\275\0372\204=\332\336\227\274\177:\251\275 =\006\275\300\326\327<\330\331\242=\030\352z\275\310N<\275\017\234\247<V\352\347=\2648_=6\025\207<?\372\036=\217Y\'<\001\006\262\275\224\305M\275\\D\303\273\365\340L\275\344,\010\276\036e^=\022\323\214\275\322c\262\274\014\356u<\203S\266\275\n\006\032>\341,V=\343a\241\274\312S\235\275\343\275\211\275A\r\300<q\207\247=\212\241x\275I\001\021\275?\003\020>\034o\322=\014uW=*\211\304\274\321\223m=\252\237\010<v1\021\276\370<\026\275\226v\321<\262\\\006=\225\004\242\275a\374\016<IQ\366<r\342P\275\0306\312=m\330\261\275\"\327d\275\364\350\245:\013\014\315\274X\340\256\275\']\204=h\244-=\256\354\245=\366\312\344<N\211\323\274\240^\344\274\336R|\275\361\211o<\373\241\300=\253\347\005<i?\366=\017\376/\274\031\346\200<C\320\003\275\361f\212\275\344\022\006\274\020\240\210=\375\310\254\275ov \275\007\360\245\275\330\006,=\024\016@=$d\t\274\336s\202\275\211\315@=\000\021\231\274\314\266\236\273\020A\304:q\234\307<\310\210\213\275\372\246\016\275\360\033\337<1\026k<\301\273\206=\311\337k=\337\255\215;\312|\030\274SD\002=\226l\372\275\322\'\222\274X\003y<\370\367\303\275\376\253\243<\026\234\274\273tj\216\274\253l\036>\304-f\274\256*u\275\322\271\025\275\'h\275<o\257\213\274s\240;<u}p\273\207\343\252\274P\276\001=\037\271n<E\322\377\274-\212\250=\017^\217=\346\262\262\275X\254\023>\271\225\261\275p\"-\275\241y\351\274W3\334=\232\375\366\274\245\262\343<g\251\246\274\277-\222=\037\221\034\275\273\312\347=\207\272\217=\323\031/\275\001?\217\2748v\002\275Knj=\177\342\272=\346\216\007>\311\257\220\275uY\237\275\273-c<\333\300\350=\257U/\275\200SM\275Pt+\275\220F\273\275\264\242\r:X\374G=\273\233\006>\343\t:\275\371M\311\275F\335\303=\\\224\232\275\224`\362\275\337\352-=<\347\235=\214\211\214\275\n\261i=\302\337@\275\020D\312\274\203\317\t<\352\312\361<\3175\263\274\212\213\230\274\302$G\275\276\376\250=\364Hh=J\376n=O\212\216=\377\276\234\275\265\374\224\274\373\261\276;v\253\237=_tX\274v\324W\275\363%\r\275\371\177\326\274oD\r>-\013:=\022\302\226\275\240\030h\275\3673\245\275`\212\271\274qi\220<\337\317\007>^\226#\275\321cW=\036D\206= 4-=\323E\257\275I\324\033=\346\2554>\031\370\004\275Z\227\002>.\341+\276G\224\005\275\317\214\207\275\230\320\245\275Z\232#\272 \262X\275\352\203\005\275\n\t\257\273\352\3034=\t\251X\275`G\364\274\333\237#;{H\027\274\322\347F\275q\255g<\323c\007\275\275\036o\275R\334#<\347>\307<\033\2178<\212\210|\275Q\324!=\232\304\233<\017*\000\275\001\005\306\275\256\232\216:\274|\206\274k\343p=\230\305@\275D{\350\274\350\251\345\270UQK\275\217s\275=\343M\263<\275\033L\273\266\003c\275\307\221\n>\343T\213\275\341\365\241<\032?T=H\305\304\274PO@<\022n\026;\300f\212=\245T\205;/\250h\274B\325\231<\341\312(\274\235X\256\274z\t\226\274t\342\274\273uF\234<\350\017\343<\227\343W\275E\314N\275\007\366X\274\244[\207\275\002\035a=c\205\247=\310\311W\275\344*P\2758\253\234\275\314\031\363<`\376\232\275\1772\245<\332F\255\275\233RI\275\0035\335=\221\321]=(\244\324\2749T\300\273l\037\"\274\271yH\275\247\202\002\276}\360\376;i\342\237\275Nj\303\274V\2542\275\004*\205:\020\3505=\000J\004>p4\037\275\003g\375\2747\217\025\274\021>\260=7\237i=\317J\203<\210\001\222=\222\210\204=\241\273\222=\320&,=_VS=Wy\232\275\013\203\354\273=l#\275\244\255\271=(\214\342=\033+\273\274\0354#=\231fc;\014\241\335;\274^\212\275cF\223\275E\361\225=\207\331d=\330\217\221<\235\240\242\274\0001\372<Q\240\323=\221\356g\274a\r\226=p\3326<}#\345<\247<A\275\373\327`<\226\207\232=\303\253\364<\372M\266\275/F\242\275\2009\301<]\364\213=\021\032\372<\344\242\200\275;\360\204:]6\342\271\037\274\020\274\335\007\"\276\027\006\376=F7\302<A\362\262=\223\322\217=\323\267_<V\207\226\2751\007\324=\212Q\264\274\310\316\266=_E_:4\202\'<\306l\t\275f`\260\274\323\257\203;N\275\326\275\365K\333=Fy\207\274\030\223H\274-\376`\275\220\232\022>]\\\342\275OZ~=\250}I=d\326V\2742\312\251=\244\223u\274\324\225\310<\001y\000\273\202\247\177:\016s\236=4A\004\276\027\303\334=Iz\367=\"\347:\275C2\231=r\343\246\275\001c\275=\307\352\340=!\026\304=-\342\"\275\204\210\216=S\247\355=\200 \023\275\216\241\272=\333\306\001\274=\326\321\275@W\301;\355x\026=\304\307\310=\232\204\270\274VZ\305=B\307\207=\006Q%\275\352\320\023=#W\270\275\220\313\215\275\364K\205<\364\335\332\275\026\016\314\275\205\326{<\014\270\215<\035 \355\274\357b\230=\256\220\240=\017\344\340<q\3025=j\240:=\336\304\355\274Uu|\274\214Nj\275^Y\351<\201\316\253\275b\332\330\275\0304\036=b0c\275\306\271\340=\366\212\366<a1y\274N\266/\275{O$=\037\t\007\2752Y\262\275y\2615\275\360\360\343\274\313\376\353\274\351sV\275\016\342\241\275\036>\004\275\24472<\245:\200<\262\367V=\036\2427>\365\263\r\274qC\321=\2467~=\334d\253\275\362\271\205<\026O\n=1{\211\275j\222\304=L\024\314=\210!J\274\241\246|\275\371\367\002\275ay\235<rk\"\275\t\327\031\274y\260\303\273_\343<\274(\356\355\275E,\203\273&\320\037=\263\r\027\275b\0029=\234]\246<?\356\223\275\3576\270<\326\203\274<\224\253\\\275\023\243\243<\003\337\322\275\251\227N=\354#\314\275\240\302\237=\375\2442<\351\014\322={\323\353\274\377\202\n=\350\335\223\275k\222\200=[\313\000\276<\035F<\271\336\227=\032\337[\274\343dD\275\332\330\265\275ZR\036\275Z\260\234=\200s3\274\261,\316<\315\244l=\261\t \274\337\351\000=\354\004D\275s3&\275\n\235\374\273\'\r\207=\\\317[<\211>\257\274\341,\207<\307<\240<|\342!=Gi\232\275\336\243\325<{\240\017=\300\025\336<}\001\202<\333\217\304;\232\031x\275\3634|;\222\304x=W\340\201>M\372\213=\027\333\341=\3639\325\274^v\334<\221\207\014<\367\330\262\275\373\210t<80\303\275R\205.<\222+\251;w|W\274v\302*\274\3348\335<WW\215=\ro\304\275\254o\377;[\n\270\275!\371\240\275\317\265\227\275\362\252*=\330\205\200\275\374m\242=w\273^<\320\035\020\275\246\303H=P\235\316\274t\217V<\260\322\215\275[\327.\273\345\277\214\275GU\250:3S\304=\251e\226\275Un\300\274\3332\200:\272\246\005\274\025\004e\274\326^L=\230\031\266\275\360t\243\274\203\\\264<,\332\2119M\034\251\275\032\330\206<\024?\234<\305\323\031<\226\351q<+\373\222=\307\260\305=\255n(=b\223\376\272\233\356\265<KV3\275\337\2050>\016pR\275\250o\246=K(\212<K_\022\275\216\354\006<\366+\265=\321l\240<z\376\010\274r!\001\275\277\320)=!\230F\274\223\342\267\275\376\226\250\275\200\256\213<\304\327\336\275\277}\333\275\021\t\014<[iS\274\377A\224\274\272\334E\275\\\270\231\275\254+ \275\360\376\220\275\022\026B\275\251\203\354\274#\256J=M\236\264<PR\006\2751\363\316\275\372\303n\2742\332\276\273\275zE=\355\371\271;\014\206\330\275\334\277;=@\240\252\275\002X\316\275bBS\275\013\340\013=\320\316\264=\236\251\246=\377\377\236=`\237\277\275,\361\002\274u\246\021\275\346\265\007\2767\313\344\273\377\231\362<;\255\205=\270\306}=\253\356\210=\370\2155\275-p\037=g/B\273\243\245\266\275\022\023\006>\r\271\344\274A\320)\275t\024R=y\275\036\275\312t\'=\233]\377;\251\217\001\276\373\252\207=\325-\324\272\010QP;\312\335\257=Ew\255<q\241\217<\353!\223=\021\3240\274=\205C=M)\005\276\276\372\217\275r!o=\250\337Z=\225\030\306\274\213\201]=@T\247\275\037\013\274;\304q~=f\332\036\275\362\242\257\274\275\340\355\273\242X\230\275D\211\221=\277\2431=>\024\374<\\7\217=e\036\341\2724\261\313=\024\340\250=\367wm=\017\374\265;\262T\202\272g\307\025\2741\311W\275\310\3119<z\323\204\275\206\215\221=\264\237\304\275(8k\274h\230\252\275c\214)=\251\246\322\275:AF\276\243[\246\274w\302~\274. .=\331\355M\275\030K\215\2756<\321<40\350=&t\254\275z\302)=\365/\271<\322\255\003\276AR\271\275\243\306\362<\367\205X\2758X\016=\262\337\021=\207[\234=9]<=\263|\310\275We\233<\370\265\200=\017m1>\356\0339<FH\r=\215W\252\274\344\\\210\272\277\272p<5\330\357\275h\323_\275D\370\270\274n|\262\274p\277\313<hJ]\275\212k\323\272\021@.\275\020\213\033=r\016.;\343\217\221<\036\312h=96\342\275!O,>\376D\352\274\245\177\005>j\221\223;Gm\267\274\277\342\024\274\303|\001<\005\302%\274\023\216\215\275\000\221\210\275V\275\004\275\215\216\222\274$\363E\275\006\005\214\275\2370K\275\317hT;\373\313\322\275\033\3262\2752\203\017=\313\370\336=HXZ<\267f\216<\\l\262\274\235s\251\274\343\354/=e\311c\275\253^\342\274\014\321\324\274g8\203=\014T\201=\351\'\236<\317S\250=k\005\217\275Tk\315=\004\374\305\274x\027\030=\326s\211\274\313Cd=\261\242\275\274\333\250d=\212Q\303=\321\003\247\2736\322\334\275\222\326g\274-\304\200=xI==\350\1774\275\032|.>\177&\245<\214\314\207<\035a\336\274W\363\214=R\372\222\274\330\311\321=\217b\237\274\t\215\213=\000V`\273\345\235\326=\343\013\310<\244g\366=\345L_=0\360\243=\312-J=|P\332\273\367\267\342\274,}\004\275\007%\212\275\354\240\301\275\376\004\347<)\254^=\275\0078\275Q\033\337<{\242X\274\331\347\236=\322\252\333\275\224\345\256;)\003\'<\275\335\n=\203\255\224=fx\035\275\300Og<\302\024\211\274\007\353-\275\251\251\253=EF{\275<7F\274\304b\233\274\007Q\234\275u\343\226=\250\304\212=\343L\215<\024UF\275\346*\316=\333\006\023\276Hf\037\271\tt(\275\367\327\247=\340y\253\274\327\\\301\273C\263#=\275\357\356\275i\372p\275\3513\201\2744z\264=\372\210\374==\311\337=\254n\002\275\213\214\202=\240\203*;\253\2251\275\033\217n=\271\026\254;`\212\226;\'\207\227<\200\206\343=.\315\000\274\036\036&\275-\302\234:)j\177\275\315\3354\274\241D\020\276n\306\305\274\272\002-\274+\330\275\275\230M\225\275+\271\236\275D\252\230\274\0348J;Q\260^\275K\372\027>Z\024Z<\341\'d;L5R>\305\360\216\274\320\223\034=\343$\036\274\317\226\357\274\366\200\026<\371Z\365\273N\354\225<W\273\035\275\035\265\016\274_\320A\274@Q\006\275\313\317\014\276u\005\201\275i\014\323=\3020I\274<Z~\273\036\034\262<\220Lc\275&\357\223<\246d\303<\232\017%\275!\037\372\273\031\003\363<\203Pn<\277M\325=\022Z\234\274\306Sy\274j\317\245\275\355\372\n;\271|\204:\246\201\031\275\026\364+\275?\247\355=D\353\321=1\341\362;\312\017\275\274y\316#\275O\320\254\275\212E\260\275\370\263\023<\377D\220<\017\324X=\317\225\020\275\223\264*<{\030#=\304\017\261<\303=\330\273\022\253\217=\205\344\027\274E\n/=\r\274J=\370\234\025\275\221\r\334\274=\007\323\274\n\275\036=H\317\241<\270C\205=]vo\273\014J\326=\021\022\000>\371\270\211<)W\017>\275`(=\307\035\357\275-\316O<\254[/\275\003\006\271\275\216*\216=\367q\201\275\241\346\251;\366\244z=/a\266<r1H=\337\021Q=\206\274$\276\215\263\351;X \267<yq\352=\241\030\n\276\021\346\264\275\'o\300;L5~\275\327\2345<bw\037<\2146\311<\240\300\336\274)\026*<\306\315\204\275G\234\0279#\324s\275\306\232\327\275\345v0\275\360\273\255\274\310\201\021\275\211\013\256\275\303@\241<\355\351\213\272\221Yt<B\020\306=\016-\320\274\341\223R<v\304\243=Fe{<Q\363t<\270\355\021<\305\027}\275\320\247\020\276\026XJ=\220\007\010\275\315?\000\274\325\364\030=)H\010\2752!.;\214\010.\275\027J\260\275\264=\001\275\326\243\212=h\324\016=\302\357\207\275#\264\251=\360\023\265\275\264\233Z\275Z\227&\275\036\356%=\332\345\n\275\302\005\371\275\365\241\305=\260\274s\275\357\341@\275\276\206c\274\361\242\211\275\341\231\'\273?\311\001<\322f\t\275\371\030\356\273\035\035\343\275`\323\374;\006\006\000\275%\366\225\274\316\005\023>\374\022m=1\000$>\226p\301\273\261\265z=\343\033N=\232i{<e\335~\274J\323\013=)\325\276<\036\000\217=\027\276&=\243\337\026<8\026\315\275\354\240\357<\217%\037=[\226\004=\020\\\242<\275g\253=\341jf\274G;\377\273\200\223W<\301\364\267\274\323\177J=pB\211=2\225\350\273\r\371\351\275+\220m<H8e=:aH<\314%\251=\203\350m=\202\020y\275\017\030\256=[\207\034=w\277\274\272Fp\032=>\025\007\275\234\0045=\347\000\214=\'\332\255\275Z\377\257\275\227[\374\272\016\331\236\275\352\314\222=\230\350_\276\007\324\246=I\326\345\275\345\317\343\274_\345\202<\201v\231=\ny\231\274\233\342\032\274\004B\200<R\030\007\274\236\021k=\t\372\261\274xR\201\275W\255P=\205\260\344=>h\240\2756I3\275e\317+\275\265\013F\275\205\031\032>\025v\221\275OR!=e\311\306<}f\273\273\211\327\205\275}\006\224<\340\002\007>\323\306I<\334\224C\275\267\225\001\2756\002\023>\272\352\261=\235+\024\274tBv\274\200\334m\2751v\217\275?p`=\266\"\035=\217\034\320\275\206!\337;\033\033\226\275\250%\026=:l-\275Z\371\340\274\306h\242\274\n\024\004\275\261\371\246<0\272a9\007N\001\276\021\037\261;u\345\340=O\273d<Tu\326=\\S\316<\271\264s=\342r\323;\303\203\252=\030\243[\275\201\363\225\2746\007\335;q\035X=\214\341v=\261\305\242\275d,\003\276\334W\276\275\276\224\016\276>\224\372<s\252@<&\033\313\275\276=N\2757\033\202=[\243\370\273\343\230\221\274<\245\356=H\353\020>O\203\305\275Y\0203=\023}\"\275\373\226\226<\023\032\364;\250\270\300\275\003f\273\275c\2048=\247\363\204=[.\366<m\031\316=^\205T\275\275}\266\275\3601\332\274\311r\007\276\341\275}<\330\370\265=\270\312%\272\230\323`=\351\235J=\310|O\2758 \234\273\264\211\020\275@\206A>V\003V\275k\213H=\254,\335\273\000\010\322\275\313\204\014=\0363\247\275\037\272\362<\025\031\376<\005\332\002>\350\2624\2751\360\272<\267\000\016<\211\214\246\272\260\032y\275{\271\016=\204\352\255<\007\254\321\274~\222\241\274\224i\034\275O\021\200=.\337\324\273 \362\273<8\375w=\357\257\202<r(:\275 \372\237=\222\304\r\275\333\315\210\274TQZ:w\244!\275\204\305\022=4\000\311\274\362\257?=\030I:\275\3562P\275\215*\223=\211\356\226\275\034\373\202\275N\221\230<[\322\210\274\2731\237\274\257O\226=\265\264i\274\233/\202\275b\304\254<W=m=3\202\177<\363\004\231\273\330\377\356<\250NC\275\313\375\242=eE|=O\252\037<\215\272\354<7\226\331=\326\037\275\2753\255y\274\361\377k\274R?z\273\374#A=\031\362G=7\032\207=x\335\033<\307\201R=T\207\214\275\274\323<>\246\240\270\274\305\261\207=`s\037=\034\346\233<6\326<=\242\222\247<\'\230\242\275\273\r\325\274\004j\263\275\227\3158\275\3555\371<\365\354\207\275\361\232\231\274a\257\333\275\206\304\303\275#\355\001\275d\3752<X\321\202\273|$\230\275F\010`=A\237\244\274\266\335\261<\217f\323<\220\'\222=\257\244\360=\024\337\231\274J\347\350;T\331$=+\304\332\273\267\334\312=\177]\007=H:\000>\366A\307\275p\353\r\275\215\201\n<\305\020\300\275\367\326P\275\013@\035\272\350\007{\274\tC\264\274\020\2466\275\016\271\302\275\345X?\274Fr:\275:\345\267=u\210\203\274ah\253\275(\r\027=\250a\206=\242\231\000=D=\224\274\335$\202\274\002\006\025=eg\234=\252x\272=\202\010\313<\252\264\003\276\333\335M=yN\316=g\r\302\275\371\277\225\275\314\326\"=\317-z\275\033%\016=\242nL\275\026<\304=d\nk==\243\272=\027\364\005=\351}s=\264a\270<G\342\343<\215\021\272<\302\357\221=\353\202\360;Db\377;Z\266\000\275\327t\227\275\3461\'=0\323`<9V\332\275\207\271@=\203\354\243\275,x{\275|,\212\275\025X\021=\214\375\266<g\016\016=N\261v\275}\347X=\223\254t\275\335\234\302\272\326Y\000<\027\234\251<|9\030<Y+k\275^\211\335:\336/\213\275K=L=\013\032@=\262m\325\274-&\">\235\266\036\275*\203\266<\013\036e=e\353\007=\221 \255=\210\252\013\275\343t(\275`\256\336\275\243\302\002>\002e\206;s\274\260\275=\004;\274\377\023\005\275\3165\246=?U`\275\235y;\2740\202\257\275bu\317=)j\306<\313K\211\274D\325\321\2729\322\002=>dB=\347f\030=\333\210\357;\332Z\257\275:\243\340<\223}\260=\036E@=\271u+=\301\353\263\275\357(\337;\261N\264\272m{\354\274\211\301i\274Q\005\227=\223\034=<\211q\303=g\311\312\275\227\364\203;\357t\365\275\236e\223\274{K\313\275\t}\023=@\345Q\275\0305\n\275\2433\035<I\377\332\275\365 \226\275\t6\323=(\0079\275\367[W\275+\t\002=\262\025\262\274\004\264d\275\360q\223=\207\034\254\274\305\024R\275[\000=\272\214I\036\275\330\333\266\274\030\245\362\275V\327\\\275q,\214\275\'A[\275^\316*\273Rl\344\274\336\017k\275r\n\303\275\250\371\255\274\347\304\202<\016\035J\274\242\274\277<\335\330b=\242\032\214\275,\3079\274wXZ=(+\006\2759\'\021=\0210\301\275\371\014\205=\327\376U=\207t\370=\204\227\033\276\265\302;\276\314\257J=\"\266\302=\252\201\242\273\337O\264\275o\245\t\275J\032-<\222c\334;\332\035W=\010\211\276\275\362}\235\275\273\014\240=\362\200!\275zI7\270\303\266T=?@A\275\266z%=Cvm=\261A\355=\277E\002>]\264\277\273\2377\313\275\201\231p\274\356\345\010\273\302\355\325\275\200\304\212\275\236\256\225<\216\230;=.v!=\366R\032\275J\207\322\275f\323\230\274w\367\274<=\322.=\221E\016=&i==\212\321G\275b\316\341\275W\276(:;\030\256<!m\323\2757\\(\2750\023\303\275\201\274\027\275\227\304\243\274\310\211/;~\341N=3\255v\274\256NM\275A\201%>-C\031\275\006\003@\275\250<\231\275!xX\274\304\310\240\275\002\340\237=\002\237\265\2747|#=\226\230R;I7\200\274Qc\235<\234\341(<\205\306O=\234\'\244={\264\375<2\005\274\275\347\251\277\275\367d\267\275$\206\277<\253\305\013=\200\310\006\275\370\211\'\275:\235\265\275\"V\330=\311\017\273=\305\345\242;\203\301\227\275\347\230\032\274h\272\205\2752\254\266\273\004\r\376=XZG\27519\027\275\331\241\321\274C\275\242\275p\270\320<\361>\246\273UH\006\274\351.\300<\377\212\364\275\354\340\234<\010!\347\275\250\327\366=\351\225\270\274\000\236\220\2741b\3149\311\021\350\275\311\204\335=\236\267\t\275\337\271T=[\362\225\274\351\2263\275n\2520\274\323\001y\275\341\266s=\332\226\261\274l3\226=Ce!\275\030c\234\275\025\246\363<v\2114\274X\340\374=\202?A\275\276\365\256=\337\0149=\274\370\214\274 \344\206\274\026N\342\274}\206\321;\355\260C=]J\316\275\303n\313\275$\227\207\274\'\277\353=\373g\233\274\264\271\241\273\000W\200;\365\330\033\275\"\205)\275\024\217\300<\332\355\233=ip\200=\32577\273-\037*=\"\233\333\2751\302\340=O0\207\274c7\210\275i\201\312\274\220\214\032\274\020\250\264\275j\177\036\275\2012*\276\263\327g<\t\251\271\274\216\257\331\275\200\021\017\274\027\017\354=O\220\030\275\303Ed=\317\037i\275\252\217\002>\325\301\371=h\310O\275\014\231\316\272\206y\332<fY\034\275\004\035\367\275\000\350\300\275!\205\206\273\347\314\337\275\032\n\216;l\340\037=}\302u<0j\354\273\221\275\345\275&&\345;\353{\332\275\270\354\230\275\321\014\301\274\002\361\361<\317S\301\273\326\225\014<,\331\027\2742Z\307<\317\374\363\274\006\333\215\2743\240\243=I*_\275\370\002\225\275z>\000=S\227!>{\310\313\271\356\352\257\275\347N-\275\364\211\353\274\356\257\371\274\016\257\203\275uf\033\275\342.\366=\224\253_=oh3<\337A\303=$\202H;\241t\251\275\236Z\235=]\214\323=\246\270v\275\354\370\201=\034Gj\274xl0=\3624\243\275\274&\r\275\313\213]<E\276\322\273\266\210E=\233\221\343<\027\211\337\273Uq\225\275\037\3715=\371=O=KM\207=\351\334\356<\220\241\233\274{\262\221=c\016\260\275Eg\215<\364~\246\275\027\200\266\274\007\263\320\274\254*\n\275\230zp\275_\251\324;\031%7\275\344\2249=!~\275=\236V\000<k\270\242\274 0\311\275\337\035\224\275\252\266\021=\216\344><b\274q\274\267\370\304\274\036\266N=\025\255\030\274\2400\327=\230\363%\275w\217\267<+\3322=\317\314\221\275\201P\253\275%\361*\275\305\312\260=\202b=>\365]\275;\301\002\215=\217\344L<\254\217\264\274[ \205\275:c\014=\374S\371\275\325B\016=\231\232O=_oL\275s\355\245=\354\220\367=\313#\337\274)~\304\274~\206[<a5\013\276\"\346\034\275\267\331\345\2746\021\205\275\345\273\365<\231\370\306=\315\220\372<*\333\342=\366\272\273=\350\266\251<\005\364\000>\177\023\305<\'B\017<\357&\301=9\326Z<\010\200\222=\2619\270=\3021\372<Z\006Z\273[\300\022=\230n\275<\275\212\214\272\250X\247\274?<\r\274\326\\\235;\300\306\310\273U}\216\274\330\370b=8\273\304=+\021\255\274X\226\220\275\025\202\271\275>U@=\211\330\252=\036\262\212\275\311\226\350;\014\320\326=\262p\240<g\360\033\275\02301<,\303\244<\346//\275D\347b\273\376\200\271\274\266\034\252<\202\226\266<\227I\253\274\037\370w\275R\nR\274\026\237\222\275E\000\336\275z\214\244\275\'\273\341\275\020`\007=\203%\272=JN\326<\210\300\026\276\017\312\247<\377\276\307\275\237wB=\260&\366\274\265\010n:\362\216\004=\0226\005\275\217\r\026=B\020v<\241\333\010\275Q>}\275\334\236\223;`>r\275\035\212\327\275V\305\323\275n\237\360\275\324\332c\275\225DA=\232\r2\274\325,\265\275\303\211\343\273#\330\\\274\376}\247=m5g\274\357\330U\274\364xW\275\030E\262\275\312,\262\274_`\372\274\335\372\267=v\267\262<\343\024==\347\037~\275\024\244\207\2748\022m<\031\352\002=}\240u<4\013\264\274\301\243\252=UY\267=tL\270\275\014_\317<L\005\342<jj\300;\343\020\202=\376},;a\276\201==\005x=[\tx\275*\257\001\275\273\230M\275B\210\356<g1\017<\343\317<=$Q\356=\327\267\316\275\355\021\312=\036\t\377\273\255Uc\275q/(=\321\215\314<\000\216+<\366\'\017\275\350N\217=\322\340\250\274\237\231\217=\td\203\274\305i\006>\307\305\026=Lm\346\275e\261`\275\363\255[=\nD\201=Q\330\223\275\344e\006=e\330#\274i\344\203\275r\'\302\274\304\022\275\275z\341\237=\221\021\202=\311\220?\275>\356\227\275s\276n\274\036\344?=\321\0102=\350\004D=M~\210=T)%=^\3422<S\014\230=\273~\376\274\204\017\251\275.b\350\275t\211\331\274>\246z\275\rE\217\275\245\237\006;\340\301\277;&\326\273\275C\233\371\274\311\255\303\273w\327*=yr\310\275r\224f\275Cw\347\273QoE\275\217\006\343\275\217\227\007=5sj<(B\r>k\370]\275jU;=(=\014\274\007\357\031=\207\255\371:\313\262\177=cFl\274\367T\345<B_\270\275s\300Z=\212\000\335<$\345\310\274\033\373\310=^\270\346<w9\320=c@\266\275q\305\223=)/\212\274\004X\352\274\375\022\252;\250\307\233\275 \310\266<\352T-\275\223\246E=\340{\256\275\347\220\315<\337\334\030\275@\177\313\273_Y\'\275\317\215\007\275\220j\244\275 G\366<\324;@=5\212\244<q\352:\274*(D=M\177\236\275J\232\243<\344;\232\275\0356G\274xC\r=\272\034_=\036\351\016=\033\260\006\274z!U=\372\273>=P\261\240\275\324\211\001=\024\236\334=l\335i=3s\366\2752\"\307\275K\366\226\274\375\034\203\273\275\376\306=\371J\253\274\353q\221<\217\352\033\276\344\007\037=\257k\035\275\366\263\031=\252\003\r=\247|0=B9 \274\261E\031>5\014\r=0\250\255\274I\336W;\331\'\211\275n\344L<\024)\213<F\336\245=5oT=\323\274\223\274\313\177\252\275=\332C=\262\325\330\275\2539\035\274-\227\025\275\256\260d\274\323\016v=J\233x\272\354\373\311=\301:\t=\3357\302\272\003\227.\274\'K\353=\245\275\212=\347{\205=\275GH=\336\331\"\275\365R\204=p\003N\275\037nk\273*\224.>\340;\276\275\001K$\276\013]\032=\273a\222:J\331\261=\223\317\006\276E\362X\274v\221)\275\330\206\215=\242\333\276=\266\006\377\274\350\032\305\273\315\357\r=\257*\264=U$\036\276h\377\320<\022\240\010=\245yk=e\372K\275s\305\007\276\2132\341\274y\007\277<\1770$\275\221\342^\275\360\267\006\274\363\236\353\272 \242\203=!\316L<?\363T<v\247\014=SO\322\274\355\344\'=\367\360\346;k\333\232\275w\013\237=\004\006\203\275\364\251\020\2736\370\271\274k\246\232<*O\204<\371\006Y\275t`\335=\327\267\333\273\351l\340;\315Ph\275\262\371\270=DJ\240<\t\374\031\2757~1\275[c\203\273\210\334@;e\0008=\273\311\272\274\206g\013=y`i\275\222\017h\273C\316\004\276\017\234\002\274\035\\U\275\224\237\\\274U\t\314\274\\\243b\275j.\222\274\301Ao=\220;&=D\235\265\271 \365<\275\360\220\247\273=|\233\275\330\335$=z|T\274\"\251\236\275jY\250\274\222Z\202<\335\234*\274\036\365\374\273\306\305\037\274\225D\317=\t\214{\274\032\252\233\274\030\335\236=\252%p\274x\277\"=xA?\275\214[\013=\204u\324\275\375\205\007\276\232\311\321=uM\374\274\3776\231=\032]\350=\301\272\r<\025\2132=\264\'\377\274\001&:\276]\3167\27616\344=\217\355\275=_A\313<\375\313\244:\367=\214=\177\321\257\275\210\242 \275\300t\032=\243.~\275\371xD;\2310\371\275\366\005\222\275.\246\364\273 Ym\275\357\362\256=\204Xn;\212\300o<\201j\245\275\334Dk=\251\335\234\274\303\344\t\276-\300\342<~(_\274\027\230\215<\334\243T<6\340)\275B\021T\275\234o\000\275\031\250{\275\314\267\223\275K\277[\275ddI=\204s\267\275sdQ\275\340\035*<;\345\323\274+\375\360\274\36448=x\220e=\260u\214<;\302\350<\376\275\'\276-73=\022i\033\275R\025\306\274(\t\275=\310e\202=\r\354\354;\003\322\"\275DC\013\276\315\214\215=j\335p=\246e\323=\004\332k\275\004B\273\275\037\300\261\275\335R\277;3\221x\275\014\021\351<\'\010\337\274\311\325:>B\223\237\275\336\371\201\274>\020u\275\022\361\037\276G\276\263<pj*<\326\314\241\274\306\026\210\274\023\325\260=\364(\246=+\260\000<\257d\367<\221\023\343\273\245\316!\275\204\242#\275\216\242\315;\327\343\357<=\273C=\034t\214\275h\354\257<\270\377\000>U\224\205\275\341P\356=K\031\213=\220{\332\275L\017\034<\220\021\234;)\t\221\275\337\rs\275\354\327\233\275\336`\315\274\306\223\244=\036\261}\275FDF=_r1=\014\313\370\273\220\320\207\275\270P\372<\363B8=\236`\021<\373\033~\274\213\313\321\275,\277\254\273\207W\242<\036*\020\275\335\277\274\274\215\373\'=*y\201<\262j\315\273\336\017\265<-\333\r\2766\253L\275oXU\275\261\274\247\275\3032y\275\243\307\202\275\350\272\355;\215\246D=\3049\007>\330p\376\274\332\034H\275\322\320\221\275mb\030<\335yX<*\275\335\274\376M9\275\334H\317\275\272L\216=\231T\234\275\375\337G=\247\235\347<~2\333;w%\220=\\X\205\275\322\241%>\2525\240=^\206\241<-\254\227<bN\257\274/D\312<\216\242\257=us\245=G\245\000\276\272\254\212<\326\242\262=\300,\025\274\324\003=;\035\3244<\302\3275\273\343\326^\275\207\354B=\367\014d<\375\034\261<c\376\365=8\227\215\275\231\260\212\273\274\243\260\275O&\023>\302\372b\271\006\234k=Up\214=\031\211\"=\255`\326=\373\266o\275\220[\350<\266\037_=MN\366=O\342A=_\212\033\276\257\325\204\27572\226\274\022_\342\275*\014\025\275\310\364\001=\034T{\274\325\353>=\226\201\216=\017?\323<\273\253`\275:V\014=\365\205\306\2757\242\260<\317b5:\013\277b=\\\203\030\275\265x\336\274\322\376\006\276p\"\201=.AD\275|K_=\t(\226\275\tw\003<-\323{\275^\242Q\275\343\331!\275\304\201\325<.\224\300\275\020)\300<\022\313\025\275\224A\301\275t\022&\275N\002H\274y\347\177\275\300\010\271\275k\244\233=\352\373\034==\331r\274U.\000\274=!r<g\002G\2752%\004>\270a/<\215\231\354<\240\317,\275Ua\317\275\033\215\325\274B\341\212=\227\241h\272}\005\271\275\007\005\325\2740\355\302=S\255\230\275w\rW=<\227k\274\220\233\274\275\255F\024<\036\216\037=U\006\204\275)\211\246\274\n\235\240\274m\265/=Q\372\272\275\260k\264\273In\365\274\373\030\206;)\205p\274\224\276\213\275\3328o<.\350\321<2\311)=Dmf=\365\313\331\274\321\365\275\275\001!b=\247\204\306\274\374\206\265\274y\3327=\336\001z=nn)\275\355\016\021=6]\254\274\023\250Q;\210\213\216\275\024\357==\270\'\027>\234\233.\275|v\021=u\250<<3dB\273\200/y\275O1\362\275\036\362\215;:\313\207\275\267\232v\275\343\031\260\275\000\212e;\230\321\206\275\327q#>t\th\275\310C\202\274\227\300\274\274\234$\004\275\333\302#=\024\252t\275\001Qi=\201t/\275*\236/=zAB<L~\207\275\\\373\232\275\310A\224\275k\321\312:\026\366\336=\350\217n=A\346\210\274\342;\026>\336\263\221\275\301\222\334=\344g\373<\222\313\254=\330`\226<t\0004\275\201]\225\275m\351q>\323\266\030;\373>\216=\222\333R\275\005\312\205<\037\034\037<H\013\300:\267\002I\275\207\032\315=\013\220\332<}X-=\306\263\202\275\253Ql\274\312\266G\276]\014\254=#I\205=\000&\377\274\347\231\233;|{\317\275\342\356\204;\022\273Y\275FS\317=\336+\331<\332o\016\275)n\214\275O\005\275\273jl\225\275;\266\366<J\205\316\274\033\360\230\274\\\017\325=f\273w=C\223\273<%\240\242<K\3158\275\251\362\025\274-\300\340<\370u\021=\334\274z=\335\034D\275\304\332\305=\263\277\225<,\371\023=\236\\y=\226\017\241\273\003\211\245=v\300\275=Q\244\304\275\272\333\305=(\026\202\275\272\211\311=\007H\265<\207\300W\275\335\332\226;\267\335*=Z\334\217\275\255\027\203<\030\243\236\274D\367\305< \004\270=t\003\262\275E\200\332\274\212\313^\274\031@\t\274\300\367\210=$t\206\275\236Q\r\274.6\210\275\227rh\275\336\237C=\323\035\204\275\177\007\224\275g:\214<\242\340E\275\2275\014\276\217T\316<\220\323\201<\336\266;\275v\240\034;\013\265\273<\375b\241<\222Tu=}7\314\274\363\034\t;\023\263\332\274\3151\335=\212\354\344;E\277\001\275\267?\243\274\356\013\025<\t\366f\274c\013$>m+\363\274S,?\275j\3673\275\272\220\r>\266\325\003><J\001\275l.{;\006\022N<\363\207\307\274\212=7=V\'U=6\200\034=\206\316\356\275$\245\223<\036\341\216=3XC;\323\325\235<\316\006\350<e\222\3429\373\037~\274\266\335\343\274o2^\273\221L\237\275\360\254\243=\016\205\215\275\232x\017\274\251\014.\275\3225\277=\230\315&\275\021F?>\353\326\211:JX#=\346\353K\273\352L{\275K\210{=\3556\360\271\005\253\246\275\201\370D\275\023\377\\;^\272E\275\274G\230;)\251\r=\177\212\361\274~\313$=T\363\370=-\375\350\275\206\014\311\274\304\037\247\2740$\024\275\300\2615\275\212\211\007\275\374\013b\2759\360\"\275A \224;\361\311\204\275\3155<<\240}\253\274\303\303\273\272\014>L\275(%\025\275\203V\001\274\345d2=*\nw=\220\266\277:p0\016>4\357\003:\316\247{\275\271l\211<\336\rV=\002\223\353\274L\232\332\273f\003\364\2742Vn\275\036\362^<1\311\"=\007\307\242\275L\216>=t;G<\352\267\337\273\271i\206<\346\315\203\275(M\374<X\343\363\275\264\206!\275o\333\217\273\213\277Y\274$\346\202<cV~\2750\023\306\275\303\323F=\006*\252<z\233\335\274k*)\2747fl=\254|\310\274\023\224\002\276t$\000=\353}/>B\032y=G\004\022\274\2453\234\275{\2407\275\361\256\\<\0142\220\275\344\305#\275\336\324\311\275y\3545\274\267\350k\275N\233\262\273\355\\\214;z\265\031=}\317\267\275\177f\261<\030qS=\332\025\313\274\273g\000\275\352L\017=\301\3660\276j\230\177<\254N\340\275\222%w=\223\376d\275\274\371\344:\356L\007=\344\374\334=k\264I\275\265\034W<\242T\220\275\024\302\027\274\311T==\262\215\020=-\306\257=\3332\006\275\0016+\275\255\201q=\\\267\254\275\371\003\247=3\016&\275rm0=\261_\255\274\271\263^\273\036\204\221=\312s\347\274\233V\230;\200M\245\274\tq\234=\005\365\233<\023W\026>1M@\274Ui\244;2\220\257<\025\036,\275\tG\213=\3745\345=\202\005Z=\334\331\t\275oO\202=\261\201\253\272V2\265\275\305\000R9d\200\324\2758\353\300\275\376!\201\275+@\322<\204\201\030=cj\317\274\267U\253\275\003\314g\275\261\037\013>\3029\311=\236r\337\275r\305\256<\325\234\334\275\027\231\002\275~\025\213<\037\312\376\275\221Z\025\274\365\241\250<Y\216\352\274\374L\202\273\205rs=\301\033\223\2752\377\256=\004\323\024<\322\017y\275\017\263\262<\235\301\257=-\2137=\217)\371;\027\310(=E\366#=EBt=\237=\025=Z>&=-\261\254\275\275c\263\274\r\203c\274\362\220\024\275\"\226\357<\031\372\321=\270\007\206\272\273\202f=\344\2228=\270\253C\275\342\315\364\275+\351\034\274\371D\025=h\274(=\nE\320\275\346\257\323\274\033\216\323<\237\256\026>\207)\000=|\356]\275#\223\335\274\3736\230\275V\373\274\275\013\230\325\274H\347q\275\n\345P\272u\216\221=}\3676<\253\323\211\275\270\267\034\274\276\025\211\275\256C\264=\006\3169\275\246j\030\275\314\222\375\274\014\335\210;\3166 =\213\314\374=\300\340\240<\372\237\276</X\233\275\315\300z=\335\214\034\276\377\013\344\275:W_\274&%\001\276\016\001\231=5\030\021=\202\316\243\273\255\276\242\274\025\003\005=\224\327,\272\221\374\010<3\324;=\332\353\361\273\342\326\234=?\244\357\272G\203\211<\303\016?\275\000\253\245\273r\301\323\275\215u@:\352\222\246\27573\373<\230Q\233\273\206J\246\274\023)\010<\024u\347<\376|\211\274\316\010\r=N\346z=P\202\306\2750\237\270\275\327\366\204\274\261\377\237\274F\272Z\275\224\003\021>\334\2354\276\251Hz\275\346Q\335\274>D\216\2756\271\221<\343H-;c\361\n\274\204_\312=\202t\207\274\024\222\261\275!\214\014\275\3719\201=\300i\n=#\254\000\275k|*=bF\374\275\244\213\317<W{\036=\020\2651<\007C\312\2744\007\242\275\251\314\023<\021\253`\275JC(\274\326s\003\276>\337\270\275\3151\362\274L\325\336\274@`p\275\276f\310<\273\001{\274\267\367\323\275\205\277S\275m\271M=\232\367\336\274\000\004\016\274\230\335\345\272\353\002\311=\200.\366:\016\2540\275nD\001\275\230\372\025>\301\t\\\275\322\312\261<0e\004=\342\270\335=\246\210\315\275\201W\026=,\3741>Zs%=\266\320s<-\2115\275eV\352\275\224\177M<aT\277=C\216\260\274\033(\310\274\2548h=\300\000l=D\2544\275\211\3565\2753\227\347\274\247f\275\275\223\210\"=\'\246\273\274M\006\216<n\036t\275_\244\263<F\266\345\274vn2\275\265\234O=\035\251\260\275r\233\266;8|\322\274\375\334g<:\2405\275\203\271\"\274Q\245\013\275\363\260\t>\034F\321\275|xS\275\006b}\275!\344\226=\334\236\241=\225\376\274\275\"\240\233;g%\253<s\271\037\275\361\303\204\273\014\354\344\274\254N\362=\207OT=\200\004]=+\037\222\275\203\340\370<\327M\234\275\002\036+;j\324\204\275\202\263\254<\014i\255=\001$\265\275\332`\031=_\0306=&\033\275<\201t\210\274\222\207:\275$\036\266<\222\216\354<\003\321\261<\n\232\274\274\246cr\275\025\320\025\275\366\203\035\275\212\271\335=k\265\200=\223\267\213<r\256\273=\240\360\246=5\001\267=\227p\013=\313\265\266=\351\333E\275!\002\342=\304C8=\341hB<\037\257\316\275{\323\376\275#\305T\275\014\255i\275\235[\320\275z\327\325\274\334\010\332<oC\305=\233\354\201\275\205\221Q\275\361C\232\275\360\204?\275inj=\n\002\314<\262\275&\275,pk\275\230\336l\275\350}\1778\203\306\023\275\326\'\013\276\237BZ\275g{\305\275\321\\&\275\376\262]=;#\217\275y\0321;T\272\275=\264\342\221\274\333\306\332=\016\273\227\273t\313}\275\210\347\321\275\360}K=SNk\275b\225\004>\030\241\237\273\247(\244\274\216/\014\2741\"\352;\263\177\274<K+\307;}*\003\274\025\310\202\275\342N\013\275&]\363=\371\260\216\275\026\001\227\274{\240\024\274\036Ua<\222\371\254<D\320\014;\217\376\254=\3670\t=\362 D\275c\314\313\275\013g+\274rS\344=5\366\354<\235\334.=&\266\265\271A\004\303\275\243\310\231=\312\036\223=\023)\025\275\226\023\'=\374+\351=\252\203H\275\351\255#\273\217\261H<\n\315\371=(\311o=O4\031;\366\336.=\301C?\275\233<\235\275(5\220<\025\334C=$Lx\274\203\020?\274wk\367=\013B\372<`kf=S\355\205=2\370\002\275$\350\336\275\341\360\250:5PX=~\367\205\275\351\217\030=_\333\244\274\257/\331\274\273\030\203\2756\325\211\274O\023\214=L\321\362\274\354\3477\274\\ch\275\232_\201=4/\247<\354\255$;\224\r\273\275\370\310\377:\200\022]<[>\302=KA\014\276\246\013\374\275\252\363 <\255\340\356\275\227v\220=\365\360==\000\373\276\275\223\337U\275\354\341\232\275%B?\275\251\000d=\032\360\016\276\323\n\313\274.\252m=\022\347\330\275\224\247h\275t\273\270=\305\033\231=I\034\202\273\375\250\227\275\370\360\342=\375\034\022\275\2748\301;\2769H\274\020S\226<s\347v\274\335o\362\275\001\3751=\346\215\222\273\037\351\003>\262\255\237<\307^\234=3\2568\275\370m\245\275p\305\246=\205\227\276\275\033\010\245\274\207j\010\276$\343>=\222-G=9\213\323\275^~\336<\305\013E=&\262\'<\353F\223=\336\3547\273\336\314\026\275\334\377\223<\363.I\275\204x\324\274\3234\254\275\210E\330<U\233\231<\233`E<\223_\352\272\003\020\303<\353\230\342\275u\341\324=\253\247\205\274x\302\312<\323\224\205\275\272\240s\275\354\363\367<\237S\365\274.\035\220\275\212\034\005>\253)@\275\345\273\322=\204=\372\274 \337\346\274\303Y\037=\271\2101\2757ey<\221\267c=\271+\006=d\372\r\275H\355\370=#\251&=\347b\220=j/\326<\202E\303\275\217\276\033=]\036+<\0104\316\273D_9<#|4\275\356b\000\273\202\270\274=\010\362\207\274j,v<\337\270\314\275\313\231\216=\233}p=\216\037\203=<\022\300<\300\362\352<\261\360\261\274m\n\352<\260\345\214=\234\000[=\030\243\244<o\237X<&\272n=\347b~\275\"DJ=\215\330\027\275\246\t\322\274\034j\036\275\340H\206\275\034B\016>$\037\216\275<\025\302\275\314\352\257\275\373\204f=?P\325<#}\343=Y\206\375\275v\243\206=\277\310\311\274\346j\212<\346\033\325\273\207\032i\274V<K\274\206\304\207<@\373\303\275i6\230\275ErT\275\300\201(=\215\"\201=\310\303K<\t\372\306\275\3012\005=_\017U\274t2\212=L\003[;\030|\235<]#\006=\206^\242\275\033\023\014\274\315\236+\275\000_\000\276\005U\036=V\225\010>\026\014\"\275\210\204h\273\224\0062=e\211R\274R)\302:\331\024]=\224\r\224\274\356\346A\274\251\306|=\364\320Y\275\275fQ\275;\341\225=\343\265\007\276\265\242W\274d\305\017=\304\337\312=9$n=\024\312\322<36+\275\\\334D=O\211\345=i\230\255\273*\277\262\275\026\301]>\272(/\275\225\004\313=\265C`=\331-\255=\247\241v\275\246\317\245\274\007\345\216\275B(!\274\002\253\315\275\333SH\275\331\033\211\275\234]\265\274\247z\367\2756\235l\274\210 -\275\200\"\237\275\212\223\t=A\272c\275\375r\276<\216\334\252<\257P\321\273\037n>=>\340_=\177$\251\274\347\364\213\2758\252\t=A\227B\275\031\212;\276y\t\220=\235G\362\274)<\006=\263\367\016=\033\276\003<\201al=P\376\362\274|\236\362;N\370M\275\377\215d\274\360\306U\275\306\354\236\274\343\345\326<A4\216=\272\3663<c\310l\275T}X=\031\030\215\274\237^\220=\374\330\246\274\211\247\343\275\273\323\243\275\220\212\204=)\211r\275%Y6=\237\204:=\264\242!=J|H<\364n(\275\303\3643\275\267\365\241\275\233C\335<W\310\017>\274\034\034\275\2555K\274(\220\207=\211\232\225=\251K\216=\313\2238\275K\330\201<x\311+=\337\034\206\275\032_\001<\341\205\370\274\352\243.;:\005\370\275k\232\222\275\364Y\007\276\'Q*\275\321\226S\275}\272\265<\314+\221=\001\226\352\273\342\031+=\"\270\235\275j\003e=\266\272\301\272\345V\037<\357\214\240\275\341\037#\274\373\344\373;M-t\275C\032k\274\220\342\231<W\010\206\275.\224\014=\016O\022>\232\037\034\275\302\300A\2757\265\365=:\335Q<\253\205\236<\352\324\336;\2467\220\274X(u<W\231\376=Yl*=\373F\223\275[\270\211<\013\313\336<\006\243\204=\352\206\343\275\031\036\376<\214K\216<(yO=\2528\206=\315\346\370\274\266\231\027>\351.c\274\275\204\234=\235L\313\275\014\023\216\275\210?\224<\233\334\365\273\271\346J\275\006\304\243\274}\246\275\275\247\347\273\274r\274\320<b?\211=LM\025\275\010K\013=`\000\327\273\010\335\276\275\275\223\225\275\251h\002\276\366\314\344\273B\203\013\275\317c\250\274JG\277<]\336]\275\2077\311=y \243=\303V\027\275\205\221\260\275n\021\256\274\006,l\274p{\013\275\0101+=\310\371\237\275/~c\275Q\202\263\275\331\234\r>DC\213\274\2379\334<\256i\030\275\222\2300=\0029@<\327\200\r<\256p^<\353\337>=E!@\273\320\177\t\276~\214a=\304\260Y\275\376\255\237=\207C\214\275\322\213\212<S\026.\275\010R\270\275\004\267\002=T\213\212;{\346\301\274\325e]<U10=\2118\216\275XB\244=\277\201\210\274\272x\000>\'b\305=\207b\344=N\260_<\243\2748=\340\332&>4\014\301<\223\205>=E\373\327\274\021W\367\273\247\3111=\325\312\027=\240\0057\273\355\372\321<\261\231a=\241\027#=\263\010b\273,\337\020\274\363#?\274\306\253\312<G\275==/\361\321=\211\310\224\274\'\r\207\275M?]=V\210\360\274~\021\271<9r\236;\356\016\005=q\317i\274\264\215\254<\227\230\231=\333\260Y<\201\361\036<\303\267-=m\216\013>\224\347\321=\316\330\022>\005\263\357<\023\332M=\033fO\275\307\017\210=\257\005\264=m6\034\275\016b\003\275=\003%<\212G\021\272w\236\237\274\000T\306=)\3000=\206\217\202\275\247o1<\026\236\267\275u1\326= N =\366m\225\2754\017\027\275\324\245[=e}\356\275\243Z\316\274\234\226*\275\203\241\200\274\213T6;E\313J\276\325\201b\275\330\006\274\275h7\276<\374g\354<Zfh\275\303Q\242</\213\373= ~\366\273\276,\271=\327*\220\273\261*\317\274\201\036\020\275\251\3614:\316\020\235\274\375\001\274<ev;:\005s\033=\347\301\217=\006\r\030\274cr\244=/\352\361<d\301f<\222\217\204\274.!Q:\215\306\250\275Nu9\275y5\001\275\273\2631=\221z\242<[Uh<\230\232\227=\016@\250=\022g\035\275e\301\007\275FV8\275\360\003\004\274k\232~\274,\230\031=\357\236\204\275}\240m=\305\265\206=zo\226=\\\366\360\274z(C\275\360\005\227\275\204B\225\274\362\016\021=\272\032\222;j\270\203\275E@E=#\026\325=H\003\234<\326\013\223=\305\252F=\026k\225;\246W\010\274\337\214l\275_\376\217\275\030\362D=\2151\202\275w\357\005\276c([=\252Z\334\275F\234\034<\251`K\275\354\210\031\273A\330K\275\262\023\221\275)\374\213=\024\306\347\275\257\007\006\275\002\037\033=?\314\362<\215@g=\322\231\272=0\311\026\276e\023\025\275\271\215\234=\345\t\217\2758\272\231\274\210\377\364\271FQ\204\275\274+\351\272\311\270b\275b\001\323<\267y\266\275\252a\346;\214\362\221\274\314b5\274\270\353\220=?y\314=`\216\216=4\332\331\275V\307\003\275\251\300|<m\266\253\273e\274X=\216\277\373\275g\274\225\275\263\032{\275\370\265?=\210\353\370\275 \322\033\275\305\277s\274\224\3530\275T\360\037\275\333\"\023>\345U \275\246o0=(N\370=\364\373\207\275\rE\256\274\206\336\001\273,D\374\275\010<\000=\360\351\r=\3712\337<\316I6<\327a\317\274_\351S\27579;\274T\317\333\275\017&\226<L\r\024\275\360\030\037=i@\313\275[\366\374;\023\335\036\276:&[=4\376B=F\310\207<\242\264\353\274\211\261\205\275*\261\273=p\353\354:O\275v\275\312c\032\275y\345\030\275n\037\236\2745%\t=\235\020\365\274\201\302\200\272\302*\324\274|\263\265\274\003\204\211\275\351\212T\274e\347\246\275\004\311E=\250\224\316\274\346^\365\2749\262;\274\215)\r>\367\004j<\345\232M\275?\246%\275\352\213\332=h\335\240\274\307Q\365<\204\226\267=\033\013\377=\214=\271\275{\032c<X\014\220=\242u\001\274z\277\237\273\t\001S<]8.\274\354\212\304\275\231\234\340\275<\275\3567\243\273\215<y\025\003=\206I\216\274\312M\023\273D\371#\275\225\223H=\253\331\266\275\017B\231\272d\275\205\275\217\232\274=rQ\334=8\030\227\275\350UD\275>=Q=\275\365\223=\355\276\350<\320T\326<j\345\014=\'Iw\275\331i\317\272S\241\234<\347yD=\263\217\345\275\031\366\003>\261Z\313=Y\362\244\274_49\275v\014\r>Q\227\034\275\001\023,=^\016*=\354\375\005\275q\232\211<u8\245=\256s\202\275\243\341\232\275\026\303z=a\231\233=)!\247\274\345\355\205\274v\201\207\275\325\272,