node {
  name: "lstm_1_input"
  op: "Placeholder"
  attr {
    key: "dtype"
    value {
      type: DT_FLOAT
    }
  }
  attr {
    key: "shape"
    value {
      shape {
        dim {
          size: -1
        }
        dim {
          size: 5
        }
        dim {
          size: 9
        }
      }
    }
  }
}
node {
  name: "lstm_1/random_uniform/shape"
  op: "Const"
  attr {
    key: "dtype"
    value {
      type: DT_INT32
    }
  }
  attr {
    key: "value"
    value {
      tensor {
        dtype: DT_INT32
        tensor_shape {
          dim {
            size: 2
          }
        }
        tensor_content: "\t\000\000\000\000\002\000\000"
      }
    }
  }
}
node {
  name: "lstm_1/random_uniform/min"
  op: "Const"
  attr {
    key: "dtype"
    value {
      type: DT_FLOAT
    }
  }
  attr {
    key: "value"
    value {
      tensor {
        dtype: DT_FLOAT
        tensor_shape {
        }
        float_val: -0.1073140949010849
      }
    }
  }
}
node {
  name: "lstm_1/random_uniform/max"
  op: "Const"
  attr {
    key: "dtype"
    value {
      type: DT_FLOAT
    }
  }
  attr {
    key: "value"
    value {
      tensor {
        dtype: DT_FLOAT
        tensor_shape {
        }
        float_val: 0.1073140949010849
      }
    }
  }
}
node {
  name: "lstm_1/random_uniform/RandomUniform"
  op: "RandomUniform"
  input: "lstm_1/random_uniform/shape"
  attr {
    key: "T"
    value {
      type: DT_INT32
    }
  }
  attr {
    key: "dtype"
    value {
      type: DT_FLOAT
    }
  }
  attr {
    key: "seed"
    value {
      i: 87654321
    }
  }
  attr {
    key: "seed2"
    value {
      i: 63532
    }
  }
}
node {
  name: "lstm_1/random_uniform/sub"
  op: "Sub"
  input: "lstm_1/random_uniform/max"
  input: "lstm_1/random_uniform/min"
  attr {
    key: "T"
    value {
      type: DT_FLOAT
    }
  }
}
node {
  name: "lstm_1/random_uniform/mul"
  op: "Mul"
  input: "lstm_1/random_uniform/RandomUniform"
  input: "lstm_1/random_uniform/sub"
  attr {
    key: "T"
    value {
      type: DT_FLOAT
    }
  }
}
node {
  name: "lstm_1/random_uniform"
  op: "Add"
  input: "lstm_1/random_uniform/mul"
  input: "lstm_1/random_uniform/min"
  attr {
    key: "T"
    value {
      type: DT_FLOAT
    }
  }
}
node {
  name: "lstm_1/kernel"
  op: "VariableV2"
  attr {
    key: "container"
    value {
      s: ""
    }
  }
  attr {
    key: "dtype"
    value {
      type: DT_FLOAT
    }
  }
  attr {
    key: "shape"
    value {
      shape {
        dim {
          size: 9
        }
        dim {
          size: 512
        }
      }
    }
  }
  attr {
    key: "shared_name"
    value {
      s: ""
    }
  }
}
node {
  name: "lstm_1/kernel/Assign"
  op: "Assign"
  input: "lstm_1/kernel"
  input: "lstm_1/random_uniform"
  attr {
    key: "T"
    value {
      type: DT_FLOAT
    }
  }
  attr {
    key: "_class"
    value {
      list {
        s: "loc:@lstm_1/kernel"
      }
    }
  }
  attr {
    key: "use_locking"
    value {
      b: true
    }
  }
  attr {
    key: "validate_shape"
    value {
      b: true
    }
  }
}
node {
  name: "lstm_1/kernel/read"
  op: "Identity"
  input: "lstm_1/kernel"
  attr {
    key: "T"
    value {
      type: DT_FLOAT
    }
  }
  attr {
    key: "_class"
    value {
      list {
        s: "loc:@lstm_1/kernel"
      }
    }
  }
}
node {
  name: "lstm_1/recurrent_kernel/initial_value"
  op: "Const"
  attr {
    key: "dtype"
    value {
      type: DT_FLOAT
    }
  }
  attr {
    key: "value"
    value {
      tensor {
        dtype: DT_FLOAT
        tensor_shape {
          dim {
            size: 128
          }
          dim {
            size: 512
          }
        }
        tensor_content: "]E\211<\305\275\240\273\212p2=\264\317\366;\330\243\214<U\336b\274u\010\346\273\257\206\276\275\017\312q:\211J\r\273\001\314\017<A@\246;3d\322\273\366C\024\275\3613#\275a\\p=\357\223\000=\352\331\003<\302\365\236=GIl=\032\311f=|t\245\274\226h\217<\"^\373<\273\3744\275\330\323z=\025\251\321\274\321\227}\275\331f#\273\211\345{<\025\311,;>/\021=\314\256\254<DFt=\3711\267\274\230r\357<\230\033%=\214\312\037\275\037n\252\274I\277\273<\320\022\305\275\277KD=\224$\276;Fs\300\274\235\"\023\275\211\331\322\274\326@\027=LX\230<sp\352\274\210\235=\275\035I\256<\343L\300\274C\232\322<\332\t\253<\342#\234=9\231?\275\034\247(=o2\330\274)q\317<.v\r\275\267\314\036\275Q\217\347<\305\233.\273\263u\252==T\337;\025\250\333<D\243\274\275L\3070=\202<\302:\034\231\276\274\306\275\026=\307\254b=I2Z:L\311\247<\262\237\231\274\215\222\027<\355\206\000=\177{z=M\367\005<\207\352\330<\031\203\006<\313\254A<\020\027*=\264$\367<Vt\260<\014\372\002>\033\244\240=\2748\334\2758\274)\273\027\323z\275\337\304\370<\027<\327=\371\315\245<# \237\274?\323\244\274\220\364\241<\n\242\010=\030^c=9`H\274 \035\212\274\352\"\204<T\230?\274\367\204\334\273\030\252\021=U\375\234\273\315a\263<\365\331\002<R\353L\275\263\017G=\352\005\254\275\211sa=\305\\\331=\277\3078==\206\001=\372\250\216\275\373\265\205\273\267\265<\273\356M\333<\222\234\177<F\354\254\274\236\331\202<9\221\227\275\347\000\213\274\002\231\207\274\326\264-\275\236\305\326;\255jV=\327\264y=$]2=y\314\233=\342\007\203=\031,\321\274\306j\350<a\202\204\275\372\332\213\275\272\3009\275\317\272\"\273\356\313G\275r.\236;%j\260\274\023\177\033=\2363\351\274\373\032\336;H\025t:\263\273\013=\223\'\373<\026\273\177<\252\355t<_\023\361\274\353\2745\274w\361 \274\341t?;\013 \n=\017\273j;\222\210\253\275\217\363L=U\355i;\225oE=f\324+=aj\241<s}\206\274>m\031=\177\261\352<\010JZ=\3323 \275\3734\030=\216\256\304\274]EW=\245R\031\273e\\\250\275\215o\026\274Q\235\034;\021\3202=\006\326\002=\"\034\315\274\256\203j\275\200\326\024\275*\\\230\274\270\203\037\2745\256A<\352\277\365\274\223\341\031\275KL\314<i\364\321\275\324\007p<\177\245\370\274jX\t=s,\262\274{\034\201=\256\226\236\275c\214\\;\017\321\000\276\323\2327\275\031\004\235\275\252\357\n\274\242[\021=\177\350,=\010O\225;\204SM=Ix:\275\314M\241<\013&~\274W\204\231=\035\260\243<R\311|\274\333\034\265<h\375b\274/&\335\274\230v0\275\201\252\021=)Y\240\273\210\334 \274\273\247\266\275Y\031\213\275\027\317\242;\334sL<\277\317!\273J\337<9\374\005[=\276\277c\274 (L==\233\003=\337pS\275L\013K=\017\013\213\274y\354\351<\341l\214\275\355\2469\273t\314\235<5\213\035=:\200\277=\275BJ\274x\005\300<\373\330F\273\246\357\324=\037\352\277\274n\304m=\221\013M=\372\366R\275\302\365\244=\306,\n=K\344\243=A\304E\275\201\271\022=<\210!\274r\374v\275\203]\010=h\244l\272\343\357\002\275\345E\225\275\351\021\337;\n\317\245=\253\273\242\273\261P\377\2743\026\310\275\374\370p\273Y\035\246<\333\214\244\275u$\331\272\001z(\275\236\t\214;H\257\206\274\256\307\221\2754Gm<Vg\'\275>\217\014=\257\212\260\274Sp\232\274K$\362\274_\2158<;tG=\023\274Q<]qB=\257\361+=\031\245\252<\370vA;\227\366U\275\257\332C=]\231\037<\313+\324=\322\\\203\275\234\253n\274\214X\234\273P\224b\273\3654\002<{}F\275\203\277]=a;M\274\361Px<c|\016=\235\340\370\274S1\361:;\3635\274}\027)=\374w\353\274wK\256=\035^9=\371\"\253<\034\363\002\2740t`;\017\'\300\274\350S\016\274\352\230\330<C\222\260:.\220\207;p\223\371\274\033\022\003>~\340\303\274g\'S=\000\240\313\274=\205\n\273\031\341\004\275I\333\022\274\"Z\243<\355\022&<\225\206\340;}Q\342<\354_\010\275Y\225\301<\326\252~;\232\366\\\275 \243\010\275\211R\333\273\313\'\006=\340\307l\275\003\0039\275\333\006\352<\324\321\020=\215,\226\275\2262\302\274\345\277+=:\347M\273\355\245\263<\242\365\275\275\330\034\266<\363\333\026=\320\222\023=V4E=s\233V\275\306\364\370\274\2441\224\275jK\270\274\243\314Z\274\244\027}=\340\271\322;\265v\240<,e\223=\234p*=N\020\202\274\377\370V=\017\241\244=K\353\216<\246\355&=b\275\304=\253d\354<\345\346M\275\334\366\006=\215\355O=\005d[\272i\326G=Qo\200\275kw\033=\377`\247\274\336:\352<r\233\215<\335t`\274\304\320\203\275A\265\257\274#l\354\275\334\364\037=z\001\272;\260h\274;Y\212\016\275\240\270=\275[x\261\274z\247\376<\347\252\t<\244b\321<\231\355\334=\270G\024\273\262`\272<\324w!\275f\324\230=\306\262\263\275U\014\246\273Hj\215=\264EZ<(W\252\274\210\237\245\275\307pq=\324:\210\274i\260\021\275\024\3117<d2\006=\007w\202\275\234\310^<\'\016\276<Pf\276\274\002R\356;\006$\276\274sh\010\275&\035\347<l=D\2742\t\232<\230\335$=b)E\274\274\353\313=H\276;\275\321\224\334;\203\307h\275\301Lp\275\024\362\205\274\251=\274<\273Q\035\274\014\243\t\275\232\243\235\275\261\303\235<\006i\303<\006w\255\275a\3177=k\'.\275\320\211\217\275\226\177\020\2750\312\202=\373I\326\275\265\365A\275W\366\323\274\274\331\035\275\200+\263\275\374\337\216<.\210c\274\251\2717\274n\001 \275`V\"\275\036`\177\275\312<\256<\303\303\230=\204|F\274k(\300\275Y`\004=D\246\334\2741\264\320<T\333\377<\323\255d\274G\217\357\274c\321\027\275\303\270\335<\243\321\003=\235\007p;\270\2662\275\236\242Z\275N\202\025\275\360FG\2743OW=H\336\006\275)\301-\275:g\275<\202\023\277\273\025\256\014\275\327\212b\275\263\351^=\n47;\320\352\220=\367\222^\274K\242\220=P\270\262\274\211\035Z=1\353\032\275\027\243 =CV\272\275Y\314\346\274p\306@<@@\376=\332\"\030=\227\217F=\260K\223;2O\277\274S[\023=^\341\010=X\323\273;|\342\006\275lHE=\260\027\342\274%ft=\014\254-=\304\237y=\227C\002=D\247\002=\360\254\002\2756\343\265\274e\362\321;6LV\275\233s\027<\245\251\207<\017\220\236\2755\316S;\013\020\032\274\030!\274\275\2745\235=\246\363S=J\212\333\275\025\201\216\274\261\003\267\274A*Z<G\374\250=\376\360\033\275\336\247\202\275\017\030\373\274\266\246\340<e\270%<\227\335\341<\271\373\333=\212\256\356;6d%=\034O\027=\371\371?<ek@\275b\017\342<V2?\275\3137\247\2752\256\205=\261\307\362<w.\345\274U.\256<\376B\312\273\337c8\275\236\207\354<#>\253\275\240\223 =\277\263\332\274|\252\016=\177\241/=\355-c=\317\356\202=J\252\241\274NC\340<\355\216-<\230\245\374\2749pU=\345\361\243\274O:+\275\0016\004\275\325N\271;\277VD<\271/\250\275\024`\223=(\336^=`i\231\275\274\241\303\275\215\227\021\274\235]\026<C\362v\275\246\301\223=n\350\035\275\334\251\014=N\005\213<\206mV<\t\213\355<_\205\037=\035\335\313<\271\365]\275\335\341\333\274y\002\251\272i\243\245<j\"\177<\3430\302\274\373Ma=\235\340\323\274\363\272\236\274\376i\242<\001G=\275\262\003\014\274\223\211r\275\177\001R\274 eA<\363\274\203\274B\254\260<vSg<<\006\210<\371{\323\274_\253\303\273\323\253Z=\260i\200\275@\230S=\007\231^\274&\207Y\275Z5\322<8\306M\273\034\211\341<L\377\220\274\353+\251\274\031 \214=\342T\322=R\255\002=\003\326\373<\313\375k<J\020\374\275\366\263\222<\213G\247\275P{\230\274\312M\274=\315\204\230=\033ic\274+H\n\274\364\037\325\274_\033\262=\236\356Z<1\342\341<\336\205a=\355\364\':\257\030\262<\310\212\376;\257~\214=\014\243!\275\371\225\037\275}B;<\206\373h\275\375Q\177=\007\230*=\316\307W\275\333\273V=@~\3369i\016\265<\225\300\356\273\016\025/\275J\005\026=9x\017\275\207\274\035\273\254\255\177<\rc&\2758W$\275\352\263\024=\256\0173\275\362\247\301=?\274\211\274I]\024\275\206g2\275\303t\024\274\020\212V\273\272\3213=\331\016\013:,\300\306<9\n\305<\nf\022=Fg\031<\254\260\314\274\357\371\366\274\241j\233\275o\031W\275;-z\275\333\306\220\272J\353\n;(\311\233\275\340\000\227\274C\350X=\233\351\221\274x,[=\023\244\021=\271\371\023=[\252\206\274\207w\353\274l\254\014\274\267g\322\274\242/\201\273\022\221\267\273\223^\322\275\\Y\344<\22670<\277Yk=\022\273\032=\242\005\222\275P\227|=6\357\221\275\345\313 \274\311\2241\275\325K\312\272K\006\000=*>\210<\373\231\236<}g\203\275\203\207\233\275\347\003\255\274\324.\025<\376\237P\274\227\237\360\274R\014\263;\364Xx\275\376{\236<\330\312L=\372h\313\272\357\253&=w\022\332;&\234\340<\262\365\001\275U\337f\275\2411c=\356\216w==\023\001\274\216\270\277=\231\013\177<\0311\210;G\316\274;?\233\207\275\004\314\212<\021#\002\2751\207\240\272\227\376\020<\243\242\220\2746\306\273\274\241P\310\275t\352E<n\342!\2750\"\035=n\244\366\274\334\356\024=Z\317,\274\311 7\274\340\"Z\273\231U\202\272\364C\226\275a\245\010\275q-\205<#h~=\223y\032\274y\311\265;\307_\340\275\'\215\362\274\264\236\370<HT\240\275\\\327\t=\262\377\226=\264\346Q\274\364N\331\274g\343I\274B\037\212\2755\036&\272B\227i\275&\002\016=\323x\354:r`\347<Q~v;\365\245\022\275\205\177I\274;\250!\275V(/\275`\262)\273\016\316\212\2758\264\332<\262\371f=f\376=\275]\201v<\037+\340\272Y\230\214<\3106n<\371h\371<\242(\243<\016@C\275,\237\314<\\VA=\33369\275E\314W\275\3458\302\274\014\013\262=\320\236\244\273*\223K=3>\016<\032s\274\275M\177%:V,\034\275HF\245<\346\010\330<\3351\031<+\251\230;tl\n\275u\ts\274&\026\273=\271q\224\275>-#=\nM\232\274\264\211\007\275q\374@=\374\nE\275qB\310<\311J\262\274\375\336\n=e\200\326\274eo\023\275m\347F\272]F<\2755\353\216;w\000\215\275q\251\026\273s\243\303\275\220\267\235\273\021)\355<\014\236\266\275\320v\202\275\310G\313\274q\247\"=j\200\333\275\001\304\266\274\337o\252<x\341\007\275\321\360\344<l\030;\275\361\035\025<\004\327#\275}2o\275\361\361\243\275\007\375&\275\312\216\346\274\252\305\324\273\326j\370<\257+\034<=\257\322\275@}\204\274\002\314u=\242\270\336\273\226\315\316<1K\200\275\344\312\213=\357\256\272\273\277\033\033=\227|@=e\341t\275QB\310\274\350\321\233;\214\356\212=\000\224\360;T\023@\275\323|y\275\026\264\247\274\373\374j\275V!\317<\205\246f<\333\305x=/\003\310=\201\003\344:\252#\305<\021\002><\346G\316\275.\320\005=\271\311\227\274\024\232\022\274\222\357\254\275\207M\340\274\370\214a\274t2\214;\250\301==\256\372\260\275!\251\304\274\300e9=\246?_\274j\003V=\267\3160<<u\234<\342\261\265\275\361)\014\2730\346\241\274\305w\307\274b\247\000\275\213a_\275\233\t\355\273\265\014}\275\367}\224\275\341+9\275f\3032={\021\275<\212V\377<\301X\216\273\n~v\275Y\312\364;\224\300\025=\033\237K\275J\013*\274z\357\037<DS6\274\352\0248\273\356~a=\0378\235\275-\345\251\274X;\\=0?*\275\007\301\244\274\367\204J\275\261\"\212\274\337:\354=\222K\n\275\310\021*<D?#\274&hr=\273\305\252\275\261Y[\275Kg\005=\326Fh\274\272\016N=\030\331F<\331[\341\2748\007\216\275\313\325L\274\306\264\304\273\352\354n\274\004\300\263;\261\027a\275\273\010I<\314\265?\275\271\337\265\275\352\\%<\300L\227\272\312\362\017=\021\355\210<vEW\275&}\013\275\346\030\317\274vb\232=\370\323b<\371k]=@QQ=\026\364\326\273\346\303f\275\006[\222\275\036\353\006>T\306:\274r\2103=\351f\033\275\366\341\203\274\033\362\353<\234\314S=\334\035\357\273W\321\340</\224\321<\n\252\330\275\345\372\032=uA\013\2748\327\240\273\221\037\005\274>r\364\2746\312\220\2754ln<\177\231(<\000\346\276<\327\312\306=5\343\220\273]\257\020\275\250\250R=\245\234`<X\250;<\254\371\223\275\247s\234\275\r7\330\274\300\230a\272n\347\000<\0047\336\273\327\225\035=k^\340<\006\025\247\275\362\332\334\274\351=\246<\304\2673=\035\272\000\274\341\355\242\275\031\037%=1\243\024=/\213\347\274\333 \367<~\264\262\274\346%\036=\315\263\221\275`\252\034>\221\261K\275\006z\266=\037Kg=.\3461=\332P\036=}\320G\275y\373x\275\004xg<\331\220|\272-\312\021=U>+\274E\3174<\270\272\264=\226}c\275\226+4\275\247\214\274;\'\201S=)\321%\275\233IO<\273\216F=\306u\251=8<\225\274\346\231\373\274\310^\"\275\2221\371<\340\006\213\273\350\246\235<\351kI\275\200\216\217<6\375\201\274<\002\302;x1\214=\360(\313\271\361\306?<\213\032\203=\361\370 =0G\236<\036\273\200<\230\002\001\274\242\342\014\275q\303\000=\0031\n=\336p\002\275g\t\322<\265:U\275\345?\203\275\335`\307\271\2014Q<_`\326\274F\326\312<\252\334\224\275\374\277\211<\317\203\302\273\005{\277\274&\017%\275-\\G=\227\247\263\275\\\206\224=t\r\267\274^}\213<\307\245\304<\367e\034\274S\236\261\275\274\017\256<s\362,=\001*\200;\343\242\035\274\376\374\'<\346\177\227=\013\365?<\234\001M;\027.\005\275\356cL\275\237\264^=\027\3506<\375\245\026\275\222\225\253\274\246\202\234\274\024\315\211\275yh\3779M\303\241<J\200\223\275\006\237\301=\341~\231;&L\351<\002\004\343<\265\244+=\273\177\\=\330t\355<BE\202\275\276\353\347;\"\202\204<~\220\372\273\205\245\235\275\254u-=uP\217\274\363T\204\274%O\336<\000C\212;\251g\201:d4\231\274N\321~\275P\004-\274v\374\035\275\216\022\227=\211+\035=n\274\234\273\253\241\231<\220$\023=\361\016\022\27594W=\221r\013\274L=8\275r\0177\274\307\314\357\273$\251\320<\360\344\002=\235\211\253\274\365-\230\275\014CL\275\271\006\231=tjF=\204\003>\275\274\026m\274,\021<\275\357v\251;\253*\251=\306!\266<\353c\003\275\240\246\235\275F<Y\275\261\n\265\273\250\324\213\275\275\"+\275\016\027P<\314v\364\2740VI=\365\337)\274\3152\020\273\256\2772\275eV.\274\350\377r\275w\214K<$\002\207=z5B<tc\307:a:f\275\332U\203\275bm[\274\2333\220\275\324P\305;f\306Y<kP\233\273\'w\004\276\232\326\034<\256\275\220:\300\260\223=-\351\266\275\306\272\036\2755\324\342\274\t\233\266<L\253\362;T\335\253<,s$\273\243e\026\275\242\003\024=*C\346<B\021\214=\r;\345<\037\317\251\274VB\237\274\302\351\231:y_\004;\\\347\215=M\254\010=\"\311\374=G\356\322\274\202\203\234<lzK\275\311\250\212\275\272\256\306\275,r#\275\373\342\033\274d\030\336;\r\014*=.\264\337=Q&N\274p\r\270\274\256\234\000< H\212\274D\361<\275]\265\320<\365\352k\273\030\337\301<V\220\022<y\304\370\274\016|\301\274\216\227\250=\336e\265\274P\374\275<4E\255<m\252\025\274\225dM=\177\250\376<\320D\235\275!\022R=\035\311|;\013e\r\275B[\205\274\361\361\307\274\201\223\031=%\332\226=\224;Y=N\321\247\275\311\351@=\224\227\236:\216g\324\274\240i\016\2753\240\265\274\214\347\003\274a\372\343\275d\257\311\274_i\357\272LEY<\033\233\353<\022\177.;\246\006t=\362\030\371\273\3346\264:\026\206\233=\342\237\232\274R\217\315=4)\036<\177:\262\274\027\226\005\276\222\245H<\267)=\275IL\205\275\241lr=\266\200\013<\351Y@\275\215\261\003\275T2\021;\360\316\"=nj\262;\313(\274<G\277\t=I\276\315\274\335z\313\275\256QT=.R\305<\274$,\275\237a[\274\033-q=\300\254\331\273\331\221]\275\027\370\230=+\270\024\275\210yA=\264\361\334<\257\337\036\275\352\277\237\275##\014\273\370\330F\274V6a\275c\205\341\273\t\263\332\274\344c\010=#oC=9X\235<\024\002\000=Bh\027=Ps\025=_\347\004=\025\003l<\210\214\207\275\215\005\240<2=y\275\371\352C<\"\347\247\273\261\374\020<\254\341\316\274T\361\206\275I^\363\274<q6\275\307\373\270<pf]=\361.J\275\362\201\310<\036g7<\256\320\304\273bbZ\273\310\301\366\274\266u;\275\371Cb\275\262\346\262=\301]V=\273\3709\275\206\307\365<f\241\233\274Z%\206\275T\205}\275\327d%\274{\026\220\275\335\003C\275\260\264\204\274\243v\001\275\340\274\006\275\232\342\335\274\234\013\217=\005\207\274<\274\2663=\306\356==\354\212\252\275z\211\324;qH*=2\007\335=\3121\351\274\310\243\233=\r[H\275\225q\n\275\2107\315\275w\2557=\205D\342<X\342h<\340\360~:\332\3005\275\237\026\243\275\031~B<\354\330\006\2759\321\273<\206\361.\274h>\205<qF\217\274`F\234\2741N\007=\270\030\035\275\232\026\'=Q\202\003=\254=\034\275\261\254<<\236\032\307\275\371\312\214\275\326Y1=\235O\007\274\356\313;\275\'\215\310<`\303\301<c\354\036\275\322q\313\274\230\267P=\365\226D=\325\337\202<\3027\032=B\272\200\275\343?@\273\313\304\035\275\306j\001\275\305\336\240\275\207\3218=\324\322\243\275[\315]\275\327\274<\275\264\277\322\274\221l%\275!`\270=\2021\235:\316\240(=3\217(<\340\'\n=>\246-\275\221\365\252\275u\350\001\275\257\241\201\275\306]\003=\226Kc\275\277\366L:\277x\242<\22124<*#v\275\356\202\200\275\276V\226<\005p\006\275\372\333\344<\ts\252\273\243\223b=gc.\275\317\177\343\274\342v\224<\271U\313\273\013\250\035=\357p)\275\316\322E=|\261+=\271%a\274\240N\225\274\247\350\235\274\346\277\356\274\021\002\001:\"\276\273:\301N\365<\317\177\261\274\000y9;\203\330\013=8\355\347;^Ab\271\2772\"=\332_\342<\235\365\314<\225\224a=\367q\365<\321VA\275\035\276\001=\\c*=GG\034\274\016R \275\273\204\220\274X\342\221\274\301U\264<\374E7\275\013\324}<=Ci=\205\370\247=r\'\224=\211\005\301=\027\327\233\273\214\254\355\273g\300\001\275\003\257\272\275I\214\215\275z\247\210\274\352\332\370<@\'\303\274\217\225\022<K\355$\2758\\\243<\244g|<Ny\001\275xc\321\274\256\353\033\274#V\340\274\266\025\313<\210\335z=%\324i<\306\377\005=Y\241\270\272\237\254\264<\315\275\310\274\243H\215\274\310\345\306\274\006\034\016\275\377\216i=\231\t&=c\220\r\2749\354\002<\300\314\n=5\240j\275\250\004(\274M=\r<\346\006w\275\263\334\313\273\363\310C;,\234\226=\246\343\236=\253=^\275\021V/\275\243\351\255<\264\320\203<\275\265\315\275\202\344\003>j\002\2759\243~\203=U\350\025\275\253K\345\275I\313\260=!\332g=\\\216P=l\2671\2745\271\206\274\311\350`\274\371\362\330<\376\303\267\274\010\232a\274\241\310\027<7\004*=\022\311\2729\347\020\246<\201\010\027\275\265\205\260=\320\"$=\3422\035=\321 7\275VG\220\274\231\267\335;D\372\033=\255\371\022=\266I\251=\312\360\271\274\277g\004\275\313\3312\274\343/b:)</\274\333\361\360\274\r\353\310;\361\343}=\237>\024\272\177\363M;\205W\004=\361\r\264\273\272\316\031=\244\217~\274\327DQ=\233\037\226<\241n\013<\315\037z=e\240\204=\242\361\'<\221Wt\275&\224\205\275A\256\225\272\303t\236\275i\355\215\275(\365\333\274\237\002\301\275\252GV=\030HB=IT\212=T\221\021\273x<\312\274~\306j\274\036s\215\274\376\3277=\342\3214=v\255C\274O\356\223=&]\275\275\2563g=\021Lj<*g\240\275\275\336\340\274\214\033\003=\345<\232=\006s%=\244.[\275i\'\254\274\030\002C\275\037``\275\214 \003:\340\017\243\275\306\364\005\275nE/=\333\303\326\274&\006\021<\247\346[\275\247f\253<81\234\274`\177?\275\033\333\257<\314\333\352;\277.\222<\256i\226;~\005n\275\007v{<e\016\215\274%\034\001<\322\245,=y%\250<f\244\245<~\270\327\274R\317\205\274j\275\246\275\322\235\334\274\335`\223\274\234>\002<Lv\275=\336\212\036<\021\t\232=\034\'\251\274E+\221\273\r\212\233<\307\252$\275J\217\355:}%\361<\303,\237\275\214\2078\274\267\373\342;\t\311,\275\327\3314=\335\376\341=!\237\330=\370\027r\274q\rN\274\3032\327<\216N\230\272\222/\032=\016\223Y=\201\3121=1AX\275i\027\212<\254\213\024=\252\360\247\275\205\362\376;}\333\367\274\326\304.=[\037B<%\035\222=6\344\347<\232\214\222<\3262/=?[\246<{\232\346<\30792\275\'\001C\275u+\225<EU\205\274\266r\362:M\010\275\274[\367\243\274;z\276\2745\252\217\274\230#\004\275\017\304\204<@\352\271\275\r\224\266<&)\217\275/\306\002=J\310\027=\006\325\304\274\360\277\251=\340\355D\275}\201;=\372\013{\274|\223Q<\256F\376\274\253\006\035\275\230\260&;\025\022\022\275C\333y\274Nu\333<\0202\231<\034\021\247;dd\341:#uK\275\'\343\263\275\350\364\200<*\t\323\274\0056y;\215\243\300=\345\370:=\007:\\\275\204\004\354\274\355\336\260\275^\314\243<\017\233U\275{\203\034\274Fi\263\274\214\317:\274n\210W\275\263N\324<\223M\267\274\327m\034\275(\036j=\232-_<,\252\024=t~8\275\035\242\'=\247\317\215\274P\340~\274\t\350E\275\037_\231=\313U\361\274uq4\2753I+\275\241\304y=r\273\347<\225N|\274\354\005\232=\225\224\330\274c\255\341\274j\002W\274x\377\005\274U\226:=\356\367\230<\315|p\275?S\265\275\272\2225\275\362\025\355;\002\356\273<\027h\335<\227\310}=\337U\020\274\203\210r<\255)(\275w\234\273<I\315/<\032\211\273=\270\334#=J\362Y=\3076\212\275\325\261\211\275_\240\004\274\373\300G\275\263\311*\2747s\014=\003R8<3\274R\273X\272\267<b\227,<Sf\202\275K\017j\275\3635S=\274\230\347\274\376\3070\275\354,&<\262\336G=\326\035E=D\243\016=0 \221\275Am\322\273\207\3556=/\316\002=\300\356\347\275G\221\251=\375s\253\273O\304\321\275\016\213S\275\325L\200=\026&\013=\276\\N;\337z\033=\303z\207\274\245\207\006={\357\304;{\201\274<\337\310W\274N\212\367\273\302\374\272\273vX\331\275\3255\317\274\201\003\\\273w\002\365\274@\2400=\254\035$=T\3005;\252\212\310<O\262\362\274u][\275\360&\020\275a\373\310\272M|#\275Ha/\275\333O\235\274N\366q\275\351\354\271\275\273\031\225;\3641\352\274m\235\003=\r\316\340<\361 Z\2753*2=y\365n=\300}\277=\257\217\027=}\232]\2758\204\263<C\351\342\274\373\251#;\206\351\245\274\357\236\337<\232(\202=\220\003\273\275\337\247\242<\213\025\222\274Y1\254\275y\244\252:3\333\300\275\213\353\252\275W\272\036=\214\325\233\274\270\317\244=\017\016\'=\243P:\275\000\211!\273\030\343\013\275$\013R<\003\273\301=]\222\022\274\341\224\005\275\030\004==\027y\005=\221+\276=\004\337$=C\005\373\273\334q\345\275BW\211;7g\220\274\n:O=#\303\031\275e\215\033=\020\2215\275\256g\245\273\272j[=w\\v\275\235\t\027\274\331=\205\275y\025b\274\207b\261\273\353\375\213\274\340\360\003\274\321\306(\274\347I\"=n\032|\275\227\256\220\275\233\366n;j\353\340\275G\"\200\273\246N\260\275)na=P\227J=\277Xr\275\327`=:)/p\275u\031\213=\033\232U\275a\370\301<\222z\251==\202\203<\177Rk\274\203\242G<\346\276\203=\2109\267;\343#\210\272\375\357\212\275!\210#=\3754\360<Sj\202;w\346_<\225\013H\2740\305\353\274\213\313\252<\000<\021\274T\210\214<w\220\221\274\264\245D\275\020\366(\275\251q1<\310\036(\273h\n\221<C\343$\275N\257\r;>\361\003\275\0230\207\274\335,\336<\022ZQ<\320\325d\274+\014\233=5\342\\=2<\275\274\300\035\014=5L\375\274td\355<\246\303\246:)\322\335;\253r\377;\304P\006=MI\201<i\027\232<\340\253>\275w\321\220\273WV\377\273^\315y\274\237\361\010\276L\225t=$\215_\272\312Jr\274\010\325\024\274\312=C\274$a\256;\267\252\260=\216\022\357\274\227\010e<5k\252\275o\323\311<\247\306\220=\304\036.=B\320\245\275\372\254\001=\215&\266\273\260\216\214\275\334\370\254<\231)\266\275\301&\207\274\332\241\370<2\252\317<\275Z\356\274uSI;E\275\320<\017\335j\275\273o\323:\3559\341\274z\243(\275\017\321\302\272O\034(:\311\010\025\275\273\366E\275\251\3132\274\r\010-\275\036\301t\274H\236M=\220\007\300;UNq\275\353::=\034\306v\274\234e\010\275\234\000\n\275\234P\311;\0256\244\275t\333\260;lk\006\275\321\345y\273\350l&=\023\272\002\273R\366\247\274\254\364{\274\201;\215;//\005=\317+?=\306q\207=\242or\274I!\200\274\014Z\342<\360\361\2659\267jo\274\333\332\212\275$x\323<\230xY<\330\226\227<\257\322\022=\221\221E\274\313\n&=R1|<*R\310\274\367\366\362\272U\266\275<U\223\215<\020\031v\275\016\303\220\274\334]\251=\\?\320<\264\344{=\312\244\022\274\374:\210\275\244\227Y\275IW\205<\377\370,\275L\320\236\273\372x\367:@A\010=\357\344<<#\023k\275Q\347\340<6\312\374\274t{1\275\006y\231<\001)z\274<\312\230\273Ctu<\371\371V=\353\355\307\275z\030\016<%\262\037\274\031\243C\275\360\344\362;\361\001b\275j\3447\275\0367\033\276\007\313\213\275\327w\277<\305\371\217:\340\331\313<\232.\212:\177^w\274\223|\254<\002\032\240\274m_\206\274\214\315\241\273\022>\256\275\206\023\005=\244\276\224<\276\350V\273z\345\223<\376\271\252\273\\\030\200\275\025\r\350\275\253V\251\275}\243\207\275\314 =\275\004\034u=\327}\025<U\264`\274^\301M\275\361\037\273\274\311*L\274\325\354\257\275\371\305t\275\330~\230;F@\252=j\211\301<P\214G\274\213\2224\275\254R\327<&\354\375\2737\241\207\275\277Z\000<\2771\242;\024\0343\275\347>?=\223\234\217=u\352\307\274\232\'\246=\272Nq\275K\207f\274D \204\275\351\360\020\273Y\254/<\233\211=\274\310y\002\275`8\027\275>4\257\274\222\373\261<\320%\255=}\225==\377t\220\275\355\251\013=W\320\240=#p\233<\330v\'=\337@\251\274\033\274p\273\227YU\274-\370\234=)\'\201\274$jb\274\227!;\275\216\317\331<\214O\327\274\244cO=K,\306<\246\310\277\274\022g\024=\241\333h\274\0314\215=n\036\026<O\030F:\245\006k\274p\262/=\313(\211=\255\024\307:09\200\2754\360\031\275^u\210=\310nE\275\037\212<=}\225\246\275\300%%\275\224Uh=\r\244\006;=O\"=\320\230\346\275\347\334+=\230\2129\275\344\372\245\275\004\324J\274\273\016\321\274\250+\027=\200AI<e\032e=\306\211\024;0\373\342;\026\304\203\274V\002\022\2753$e=7\r\332=\232\316\020\274t\270\210\274\226\034\272=J1J<\340\363\006\275\372$\277\274\263\215\205\272\340\260\251=\234\344!\275\021\001(\275\017\373\277=_\350\214=Y\270\306\274\353\363\371\272\352cM\275\031\367s\272\271\211\363\275\020M\200<D%\234\272Q\022\260\275\356+X<\371&\343<\022\216\257\275&\257\344<\326>\017<X\372\307=\351\263@\2715\201\t:\336\265\245=\030\233X=\004\243\265<\'\273{=\023\036O\275\307\216#\275A>\212<\r\225n=\236\022\235<\227}\246=\270\037\317=\353E\026\274f\340\204=b\252\337\274\365\376\225<W\267\332<\347\267\260\274]]U\275\261\"\242=e7\025= V\266\275N\021h;Yx\203\273\3522l\274?\362\251\274\272z?\275\226\331\274\274\t@\246<\036.F\275\324\346w\274P\025\242\275R\312\202<\320\322\236;I\244J=G\313\347<\301 \311;\336\257+<\263D\212:\371\035l=\\\230|\275@\315\224=c\270U\275\247i\353\274\315[ \275\224f\026\275\350%\366\274\3247\315=L\246q\274\357\2569<m\364\206<d?\355<\036\243\373<\234\306\"=\251\003\007\275\334V3=\0235\014<UF\211\2744:\216<X\307\273<\324\213\325<\326\323\002=\000;\373<\010\024\351<\356\356\013=#o>=_VJ;\360\213\327=\261\235\353\272\216$\256;^\365l=\217kX\275\322\364\353<\231\024E\275Jp\207\275\305\360V<\301\274\257<\022\336&\275\353\252\357\273v\234*<\325\374\277\274G\204z\272\376\"\323;\0236t\275\277\017\032=\375\241\206<,\374\244\275\236X\206:\253\204I=\303%6\275\017\tQ=*\236z\271\007\302\216\275Ef\261<\301\3012\275Kr<=\031E\306\275\"\314\016=Y\305H\274\227\026N\274\204\320\205\273\026e\344;\224[a\273d\372U\275\233oC<\033C\302<\3365\177\274\275\236\026\273O\271\027=\324\351\023\275L\336J\275\374\214.\275\n\334\250<U\357\017=\002\232\277\271d=\317=\001j\200\274\272\211\037\275\262\216T=X\365\357\273\347%\212=\363j\016\275\377\230\270=\027Y\200\274\020p\232\275\307\345Z<\371\202\305\273\331\372\320\274\356\223\016=Fk\262;g\261f\274\032`\306\274w\370\352<#\374t<\262C\023=\034M\026\275\235;K=,\351\253=\344\352\027=\343W\243;\307+\340\273\242\250[\275\017\305\210=\323D\204=\0228\263;=ZD<2\241\023\275(e\250\273\265\357C\275\202\033\203<]\341*\275i7!=\006\216\031<\211.\341=r\362\272=\301@\323\274d\177-<\325\276O\275\302\360\261\275\256\346\t\275\306\226\205=R\223\312\274\232-r\275\026:\276\274H\247\267\274\261\367N=uc\356\275\r\354\313;}E\204<\234\370\r=\363xn\274r\234\242=\350\207)=++\222=B\347\262;\033\361\256\274w\222\035=\331\205\n<\356.@<Re\033=]D\215\272\237:\347<\216\236\265<9\302$\275\\)\n\275\022\232\325==\221\323<\220\006\354<;\215\034\275\266\257x\275\020X\303\274\203u5=A(\334\274\3340\037\274Y\347\232<`y\301\274\233Q\210=\260\tt<7n~;\307\370\"\275\251m\264<\301\371\342\274}\222\234\274\205/\215\275\330\250\227\273\366zh=\022n\240<J&6\273\256\331\276:V\352\364\273\177\237\310<\030\252\337;\212\305\241\275\025\203[\274\335y\264\272\367-\212\275\204|\005=\014&\021;\206`\311<Q\314\225:w3_=EZ\364<{M\241<F\373\002\275\026\020\275=<\307\214=J\215\375\274\231.\237<\217[H\275g3\200\274+gQ\275\274@\007\275k@t=\332*\244\273\204\221\314\274\300\361|\275\211\006\222\274\337`\026</\314\030<ly\216\273\313\274\225<\010\\\230\273\367!\276<d?\235\275\tq\377<D\376\332\273\013\224\023\275p_\242\274\030\036]=\203c\032=aV\223<1\316\330=\275\301\365\274L\215(\274\351I*=t6\302=G\356^\2735t;<\034\034-\275\366K\366<\2150b\274\312\321a=]\207\256\273r1G<\203k\306=\346M\254\274\206\376L\275\30188<i\033\014=d4:=H\232\216\274\266%\274<k\t\353<\252\t\355\274\\%\001\274\215g$=6^\353\273\251e\244<\334u\220=\302\324-<\305gV=\353\335m<\224?\227\274\036\003_=\337\326\254=\200\'\270\274\316\210>\275\323{&\275\334\366+\275e8\037\274\023\360$\2754\304\000\275\3761\341\274J\232\366<\n\006\000\275\221\037>\274\343\227#=\333\032-=\346\215\243\275]b\003=uT\225\275\016O\\<^\356\021<2U?\275\375I\227=\341\310\010=\237S4\274c\305\257\275\207\254j=\3226W\274\365VR\275\312\031\001\276\260\000\347<}[B=A~]\275\277\326P\275\005\270P=>\207\245<\\\207\000\275T\336\t\274%\220\253=\335\250\252=l\010\212\275l\346A;R)X<\250\303\001=Y\203\014=N\201\335\274\321\223\034=\215\364#\275\305\3379\275\206\210\375\273\2147\355;\312J\021=\371\017\000\275\017\003=<\240\260\224\2733+\253<\375\177\024=}M\241\274\270\033\276\272\347rJ\274 \357\347<\274\364U=T\036\372;\216B\376\273\304\350\177<\330gM<D\234$=\004\337\212<|\014\203=\243Jr<L\006#\275\205\'6\275\365R\344\273\314\325\235\273\357\210`\275\373j\361=\250\2369=\304\246\273<d\252 <\253\026\004<\334zw=]\317C=h\257\005<\306\017Z\275m\356:=\274\365@=\031\264\260;\000\322\232\274\343\214\216\273$f\362\273\372\031+\275RAn\275r\177\214=!\360\247<\246>\014=\373D\305\274\201p\234=\235\2017=kN\276=\3175\005\275DoN=R\345\n\275\374\2378\275\325\344\366\274]\260a<\211{x=\271D\267\275\2568\327;\213\273\250=`\242\203<\355\240\233=n\323\036=\245OW\2757\241\361<i[\326\272=rA\275\272@&\274\010\t#\274\316}\3339:\004\226<(e\302\272[\247\276;w}\231==\020z\275\241n\377\273\365W\006<\037\030\301=\304V^\2750G\005=\221\304\351=CX,<\341\223\205<w\375x\275\017\342d\275\307\324\350<\274\325\001=o\245\017\274*\205\230<\r\010\264\2750\247}\274\t\335H<\350\026\206:\362\027\216;\311=\231\271\372]\252<\231s!=\346\205\256\275\306\033\021\275\0334V=d\242$\275\251\335\213\272|O.\275\331\356G\274j<*8-\377\204\271\021\023H\273\376./\275\005{}=V\240W=\214\374&\274\251S\034\275\215\227\251=Mq\352\273\263\234\027\274\220m\330;\\6g\275\355\262Z\274}m\211\273q\254\300=\027\242\244;\321\214\213=I\230s\275y\0015<s\306\000\274\344\351b<v\277\025\275b}m\275VP\024=\n)]\2756\200\301\273\234tL=\254\274\267<\325\3166=\2767\345\274i\237\350<\225>\234\274\231\333\362\273U\317`={&\274=8\003\037<e\342\221\274\243\2234=\276X\342\274;{\014=\246Q\377=\263\030\305<\220^I<Y\277\272\274w\204\325<C7\375<k\215\305<\363\351\365\273\331\001Y;M\\f=P\2601\274\216\265\037=\236T\344<i\230h=\272o\300;q\367\275=(HL\275k\364\263<\001\257N\275\353\227\254;)\347\300\274\276\215\377<\t\'\024=\177\355/\27590l=\256\351\n\275\nX\003\275\230\372\334=\237\231\351<@\332\243\274k\346\034;\017\205\311\274\241k\332;\237\311,<\\\222\204\275en\216\275\351\270\035\275\347\034\346<\271\023\205<\277\337Y\275\241\325/;ZEW=\227K.\275\013\257\002=m\355\250<\204\3003=\310\272\217\275)?\322\273t\017\372\274\\9\034=\327\340\276\274\314\010\312<\275\250a\275\2434\267\271\031\367\274=\026-\016\276\303=\210=Q\201\332=\265sB=Xs\321;M\244P=Q\037\017=\324k\313\275\277\002\262<=\225\037<\330[\200\274W\375\231\273\300j\254;8\267O\275\205jC<\212S\016;\021\211\214=u\037\315<\374\277[\274\203\202\311;\007\272J\272\217\233\214\274\037E\034=\003{\213=\201w.<\\j\327\275\220`\235\275\330\340\320:\324T\366\274\330\212\313<\035\3710\274\003X)\275\357\270\274\273\177F|=qrT<\262\000\240<\241\251\203=(\220D\274\323sJ\275 \322V\275#\036\\\274~Q\231\275\274\002\007<\346~x\274\177a\033\275\240y[\273B$K=\313\216\360\273\270#\247\275\007\035P=Q^\374\274\014\303\215\275\351\207\307<J\374g=\236\223\232<\235\366\257\275\305X]=\021\001\266\274\211\274#\2741I9<E\245\006=\213FL\272\204o\321;}t\024\275\033p\244<\356\351}<\326\215\006>{\267\337;\332\264\221\275\355L\006\275\325&h=\257\214\305\274\364s\325\273v\354\n\275\201\270\221<\217\371\232=?37=\213\242H<\200\331\324<\211\306\001\275\036\324\022=\256\001\202=\323<\017\274*l\250\274\345\333\256\273\221b\341\274rc\216\275\257\350\030\274A\212E\274nc\274=.&\341\274\275\243W=Q\300.=r\351\200=EM\210=\267\325#\275#\274\277\274\301\273!=:\201x=\235\364\010<\037\313\222=\030\220X<_S\005\275U\202\334<<q\227=\213\330\326\275\353\353A=\347\211\224\275\'\206\201<\3519\316\274u\210\355;\345\000\262\273\204\212\227==\262)\275\243(\352\274^x\024\275\270\362\220\274H\205U\275\212\021\300\274\272\3544\275\366\220\331\274\003\310\203=T\207=\275\347\342\334\275\t\344\305\274x\234\321\273\'\322&=\323\275b:\0004\034\273 ;\262\274\005\270\211<]\275\257=\013\371R\275v\225\273<g\244\002=!\275\377;\367\342\024\275\252=\235\274T\307\344<\356j\321<\000\347\225<~\222E;\223\233)\275\026\346\214\275[\177\215\274$\342:\275\316\301G\274\200P[=Z\243\307\274\354\335\375\2747\'\320\275\201&\215\273\021%6=\032cS\275\t_I\274\222Re\275\r\023q\275\001A}\275%\240x\275?\325=\274\261\365\333\274Z\005l\275\310\305\n\274G9\205<\022\277\271\274\350\264}<M\214\016=\232\356\306\273*\030\023=\0278\001<Y$\201\275]\017\221\275\rJ\257=\000\273\237\274z\010\236<7\221[:\225>7=wz^\275\306}\202=\361\0353\272D\373\213\275\321<{\274\n\255\005\275\336\376\327<\237 ^\274\364\0014:\226\351\227=Qs\311\275-\262Q\275\'OT\274j\333A=^E\016\275\326\023\003\2753\225\250=\330j\276;\362\002c;\377\367\322=9\202\377\273\226\006M\275\032P\016\275\3353\010\275,\246S\274\030X\300;?\227v=\024\367\316=W\276.=\003;\345\274+\226\017\275A\243\006=:MV<\302\267\233<\253N\013=\316\243\234=>\376\373\274\355\255\204=RYO<\016\000\354\275(\304\340\273\016\305\274<\207<\025\275\323\2536\275Mw4=zz=\275\371\364\217=Bt\230<\212\216N<D\2637\275\277!\202=\017\274\221\274\005z\205<W/\316<\257i\245\274E\t\252\274\206\353\n=l\030\373<\256#2=\'\376b=\000\324\250\275\260Dk\275j\240&\274\374\331\230\272\341\331H\275x\3742=a\364\220\275.J=\274\302Z\250=\325s\377<(=\215<\002\203R=\265\000\301<#\374h=\314\205\210\274\245E*\275\3275Y=C\211\333<\313\206\224\275\206\326\370<\365 ^=\337\311O\274\352\356\034\274\313LH\273/Y$\275\202\244Y<\220Zv=G\277\'=\245V\305=\330m\301=\334\367\032\275\376CD\275\0332\272\273\362\216\217;[-\177\275\226\254U\274#\330\304<y\375h=e\3709=8y\214\274\027\256\304<v\221\033<\320\345R\275V\300\240<C\225\003=\271\227\355;\225\010\333\273\320\343\227\274W\304\273<X\273~\273\372\226\250;\274\253n\275\020\234\375;\005\334\203<\"Q\202\275\014VL=6o7=\234\322h\275\302[\330\274\251\310\"<\215\211y=\020\255\326\274s\214s\274\2370\204\274cQ@<\307\371\263\274\3001\346;\313\000E\275SF\010< \305\314<\321\004\033;\253\347\r<\320\262j\272g\374\364\274\263\232\023\273\353\224u=3ZO<UY\354=\234d\256=\263p0\272\263&#\275\305\232v:\243v\335\274Bf\223\275\207mz\275\337/\000\276\227\264:\275\215C\221<\344\027t\275\215d\263<\323;2<neJ\273\3331\216\273\357\323\024\275+1\205\273\227\245\322\275\352\332e\275\371\034f\274\354\334\343:\301\247\035\275\022\331.\275\350\036\023:\037z\t=\352\344\017=H\321\205\273J\337\255\273\005\302\246\274w\271\215\275\333\251\221;\320\2520\274\0361\256\274\233\223\\\275\206\221K<\037\037V=_`D<\231\334=<o\200e<\033sO=\266\263.=2\274\\<#X\250\275@\"\331\274B\322?=\212\021\371<[;\352\274\2274\000=\271f\356<\013g\310\274Y\341\250\274\206\310\211\275\264\320\267<f\335\217<\212\231\240\274g\344\334\274+8\204\274\214\254\220<gd\343=\304\353|\274\207\001\030\275\326\377&\2737\351D=+\201y\274\313&\215\274\300RW\274*v\256<\305F\223=)\271\262<0\275\250=N\211\232=^\351J<\341\302\251<\r\016H\275\357\213\247\275(\240\252\274\177\312\244\275k\275*=Po\216<\265$\037\275\3110\276<\344i\026\275\373\354\373\274\344Z \275\0335\220=\203H\362\274\233\366\007=.9\252=\343i\017\275\335\215\364<p\314E\275\30516\274v@\037\273NV;<$[\257\273\354r\240=x\347\036\275\320\342R\274+?\261=g1\200:\251L\300;\376\251V\273\352\\Q\275\333k0\275sv6\275V\017\027\275\223\000]\274\253]h\274\203\366b\275\023\244\352\274R|\200\275\330\251\201\275~A\340\274\247\233\244\2741\203\225\274\343[\225=\'\327\314\274=|\214\273\217\033\202;\010H\266<\010\016\221\274\004\244\373\273\025\331)=\030~\023=g\312\254\274Vj\231<F\235[\274\3677+\274G\026\357;\332H\001\275x\377\205=T)\303<\351\302\350\275Br\024=30L=\325\003<=\356\2110<K\216J\275l\007\311\274\207\245\241\274\242\237\366\274V\306\001\275J\336\257\274\342\232\221<\022\3517\275\377UL\275x\004\037=R;\366\274`\230\373\273\304\242u\274u\257\272<Q\345\323\274\236x\316<\3458\274<=5\"\275\332\221\333\275\215\203\202=\301k\031=\341\326\355\272Yy,9T\352:\275\022\3655\274\032o-=\277\325:\275[\244\214<\023\276\375<\223\033\355<\226\233\026\275\334.\024<\222M\320\275\347\007\024\275!\037\002\275r\322\355\274\331\211x<\344Zl=\013\0147\274I\254\343\274S\030R\274\330\332\271<2\213\000=:\357\'\272y6\364\274\255\240T\274*\225\361;\nS\230<\212\210\244=\237\340}=\200\260\232\275\202W\244:\025\374\315=\302\257\013=\016\032\376=$\341\314<4\257><\035A\340=\003)\355\274cj\300<\361\033V\273y\025\245<\031\336\031\275\\\225;=\n\203:\275-/c=6\336\013\275e\204&\274\r\224\337\273)\230\242\275\t\212\034\275\255c\000\275YT\273<\363|\3519\251\317\247<\231H>=C\013n\275^|\305:\227\273g<\211^v<\363V\021\275\031\260I\275\'_\n\274$\363\215=gq\366<\n#\341\274\262\313\266\274\030\214y=\363\264R\274F{\360<\233+?=\302}\352<6\324O<\207\342\034\275P\326\032=\022AH\274u\204\353\274]\0002\275\362\276\352\273%c\212<+\321\304\273\001Dm\275\364\227;:G=|\274m\300\332<\263\320?\275R9\022\275\024^ =\332\177H\275\206,\2639\270\2409=\253\320\224<\277\206 \275\365\363\250<P\365\326\275\247~\301\275}\000\257<\337\356\203=e/\232\273\244\273\230<Vs\324<,Z\337:\341\206\250\273\306\327`=0z\306\2740\005_\275$G\024\275\363\024z\275\020md=\212|q<\266\353L\275\362\310\331\274\341`\246<\330\037*=P\333\031=\rl\213\275KF\206\275\352\245\202\271&\301@\275LM\203\274\353.\236==\322\370\2749\367\031<:1\366;\010\354\346\274\233\177\272\273\322y\327<o\341\"<b\241e:\203\270&=\202\326\257\274\275\337\205\2755p\272<\1771\264=2\001k=L\212\330\274\217i\022\275\007\005\023=Z\303\343\275\260\037(\273\317EG=\346\371\302\274\177\355\206\274w\356\213\275R\312\024=\\~\373\274z\360\020=\320\370M\274\204P\215\274\261\233\250\274\266\277\300=Q\342\212<6\006\215\274\321\250)\275\321\256)\275;\344\214\274#\023\n=\205\n\255<|1l=\325\347\003\275\247\326M<^\357\273<\226\376V\275\t\232 <\0310\373\274\013\372.=\032\303i\275\251\255E\275\323b,<!\336\302\272\021@U\275}Vy=\273\245o<\361\361Z\274\324Cp\275\354=\030\274\223]\031;\253\221\032=\306\027\252=k3L\274\226\241\235<m\216\\\275LY\326\274\330\266\347<C\253\037\274\370X\226\274QI\037=\017@\034\2756)\251\275,\331\204=dj =\374\021\262;:yO\2756$f=:\262\304\274\211`%;\204tT=\240\004.\274\206\223)\275<X\246:\370\224\016\274\272\377\023=\247S\330\274\257)U\274\211}p=L\254\311\275\263\311G:\272\324\035\275\027i\001\274.\327(\275\305\217x=1^\300<\021\003y\274\354\211\220=4N\224\2747\353\364\273\007\344\013=]d\236<i\220\325;\342\\W\273\010\231\235\274B\316\205\274\256\273\003=\277\300)<+\356g=\374W\236\273\203\375x\275\230\036(\275),\317<\275?%<\302+\250<\236_r<U6\357\274Yk\257\275\t\331\376\275c\016)=\tH:\274;E\372\273`\334\213\274\026o\303\275\333\237!=\307X\036=,\010\306\274\223\305\223\274\355\320g<\032,Q=\341W\371:\277\226\224=\204h\313=l>:\274\033\337]<\237\366a\274\324\005\335<\306e\224=\022\317\257\274\220\236A\275H\222\276<T~\327\273\314\033\346=\311M\272\275\336\320\245\274\263\263I\274\270I\226<K\300\316=\0269\017\275@Q\030\275\277\305{\275\201\354\006\275\370\231\207<\005\356c=\006\342\210\274p\004\226=\301\010\202\2734\276\270;\231\217\350<\270\367\027\275\365\304\354<\240>\025<\300\241\'<\316\242\261\273\277\223\014=Q\264==\213\350\302=eZ\225\275\225\324f<\231\240\331;\210\025\325;\r\335p<<\360\305<9\237\321\274$\317\177=\204\271\014:\027|+<a\243\035\275f\263:\275]3D<\367\355\237<3Gu=s;\207=\"*_<\0028l\275$%\201\273\016\335S<Y\325\034\275.v\177\274Lu\017\275u\244i\273\234kM<%\335\314\274\304\327\207=\311\232\215=\363S\343=\237\247K=\366%\227\2736&R\274\370\002R\275ay\254\275\316\201\267\272\206\202h\275B\233J\274\373\355\020\275\\u\254<\272c\'>jL0\273\356\326_<\361\211\212\275\352\343\374<gj\206;SC\324<\271\033c\275\303\203\257=4N;<LC\226=\010[\274<\374T\240=\027\325\\=\220C>=a\\\322\274waX=\227\335\265=\232\337\337\274\330/q=\252HW=\016\330\037<\331\322\246\273\025 U\274\021(\021\2759\003{\272\t\205\230=\346\177`=\215H\\=b\364\026=m\263\010=\307l\230<7\343H=\265P\257<\244t\216\274\016\343\205\274\027\233%\275)\034\247\273\332\3438<\364\2065\275>\207Z\275\320\363\324\274\n.\206=\372\027G\272Y,\t\274*\t\205\275B\376\355:\213\305s\275\030B\201<\345]\030\2750H]\275\271\303~\275$Q<\275sk!\275\003\317\320\275\357\027t<\006~\000=\342Pb\274\217\325\016=\232\377\235;K\203\217\274;\234\007<(|^\275\326&\350\274nL\024>50`=\275Sb<1D\221\275\217J\323<\252\267F=s\230\207=\262\036M\274 y,=}cI\274\256Dh\275\367\250\312;\024\333\322\274#\220>=\211\303\331\274\031\006\031\275\314f\024\275]^\'\275\332\034\340\272\233\221\350\274\222\376\214\275\361\2606\275\031\272\270<\203nH=\363\233;\275\n\013a\274\253\247\005\275\177\216\235\275\177\006?=\210\203\027<\341\312\032\273\364;S=\2037\006<\000\336W\275o^\000=\321;\343=\034\326\377\274\210O\240=\364\231\024=}H\251\273\317d\177\275z\3447\275)\234\262;\246r\343\2745ju=c5\205;\347\027\321\275\216\201\311;(\3429;\334\267\003\274\031yv;:\351\360;\231\263P\275\251\217\264\275\361\013\367<c-4=\201\355\307<\223B4\274\252\227\"=\314\242e<\003\351M<\345\314D=|\0232=,\022#\274\032\373\340\274Rq\256\272\031\\\245\274\014\235\r\274\30686=O\276\207;\366\236\361<\331C\356\274ON`\275U1\203=\356p\252<\023\355l\275\330\302\036\273\261 \030<\356\276B=\241\023\202<\002Xp\275\350\375\202<\317\3206\274\317\375D\275\333pW\2758\305\361\274N\020><\300\257\351=\360\311\013=_c$\275\322\326\n<\3363\317=h\334\'\275\273\305\025\274\351\217\002;\264\020\227<\251\271m<\373x\035<\234\177r\275\352Ds\274\236\324l=\333\315v<\212\023\356=\257\314\340\274\3544\010<`\277D=O V\274\0271\307\273\233V#=\214\177\242=\007g\314<a{\026\275\320x\361<\024[\255<\202\203`\275\327[\211\275\001T\017\275%\372\224\275\037o\203<4\n\266<\001e\213<\251CZ=H\234B\274\027\353\024<?\201\034\275\036\240U<\370Y\307<\353\255\002\275p\203\026\274\000i\341=\035\027\031\275Ky\230<\343\331f\274\322\376\017;\324\t\303<q\344\216\274=\225\021=\206`I:\003\225\023<\233\370\002=\tR\341\274\001X`=\356B~=N&B=\014\233\314;M\252\371\273\241\342m\275\363\307\331<\234\264\"<\324\t4=\236\305\035\275\376\210S=D\010\217<o\035\230<W7~\274x\321\303<\223\334*=\215\376\377\274&|\250=[\332\025\275\325\004\261=w\325\341\274\366\265\207\273\305\014H=*\360\211=)\324\217\274\320\033\360<LG\361<`\031k=\211c\256<\336}^\275Y\270\302;a\320\353\274}\211C\275\345%\022\273\245\021 \275\004\321\273:g\306\202;*e+<,ZE\274\207/\364<\364\237\366\274\241\356\247=\320\276\016\274\3554\325\274 7\033\274_\236\026=(\274\t;\r:\334\274\234\255\002=\350\241.\275\305\271\007=\216\3451\274;\304\262\274\361g\n=\243{\301<\242\217\212=\225x\236<\337,\376\275\316T\264\275\274\2334;L\240\333\275U\3646=\013\206\257=\316\276\363<I\207d=~\376\370=\006\341\272=8\367.\275)k\313\274\354\020\214=l,f\275\2268\301=r\212\366;\372t\215\274s\276$<{l\337\274\271m\240;\341g\204=?\233\026\275\361\361\177\272\237\020C=\264_\034<\272&\002\275ba\201\275\336\306\366<\037\200\254\275\245\034[\274\250\227\335\274\234G\206\275\230\311\265<\334r\\;p\345\341\274\313iD=\376\023_\275\253\'\n\275\334\364\326\274\005CR\274v\261,\274\255\366+=\352|[=]\245\031=\277r(\275s5\307<(\250>\275\337@\277<\023X=\273\232\201.=\315\215.\275\355\232\345\274\tx\210\274\245\025\234\275\220\237\026=\336\331m\273\340J <@\272\235=\310\210\024;\'j\030<w\005.\275\242U\"\275m\321\025\275 \254i\274\335\234.\275I\267\231<m\223\221\274\367\2531\275#l\355\2746CE\274p\327\232\274\024{\347\274C\241\324<\034P\203\274dO\363=\252\323\353\274\343\327\021=\265\307B=\266\226\371=\213\246\204:\216\206\202:O\272\021\275bVd:\361s\260<\240^\276\274)\021\315\275\302\313\006\275\250,H=\274P><\3140\225=u\245H<\236\355\256<\255\340\007\275\205\355\216=\202\336{=\277Q\331<\276\203\252\274\260q\330<\323\ny\272\025\344\236\274|\222\222\2747\021\202\274\204wb=\034-x;\363fs<Dq\033<N0\306<:\371\003<gb\202\275Bf\231<\363._;\334\2529<\315\376<\275!x\201\275\035q\032\275?6\312<c\244\266\274\215\016\035=\245\343\264\274\235K\243=\207^T<d\221\230\275\021\241\216\2749t\235:\252;d=Z;.;\004;\330<\367y)\274\374f\002=\322T\002\275\204\230\344<T\357\245\275\257@T=\373\024\201=\33663\275\030\304\016\275X\014D\275\001m\300<\213#4\275f\3040\275\260\002k\275\225\027Y\2754\317Y\274\305t\351=\021\304\360;\024\361\213\273\003\261\231=\211\2006=V`@=\225\010M=P\300\035<\330\325\242\275\256\025\\;mi\225\274 \257\235\275?\366\362<=cM\275\005\200\252<v\2309=\376\324#=<\260_\273\0279\n=\017\273`\275@\205$<\033\376\242\274G\202\216<Z,==c\357\371\274\225\256\316;\206\305i=;\010\264=\231\366\256\275w\312\332;\r\361\035=\251$;=\352ms=\310\203V=#c\244=\255\370\322<\n\301\220\274\326\377q\274\352\252c;\340\'\225\274\364~8<h\3202=I\216\320\273\020\372\333\274SL\031;B\367\322\272\022\344\351<q\007\326<J\261\300\273\036\351+\275\222\303+\275\306\231\256\275q\353)=\340\005\363\274j\204\340;pK9:\204\344\024\274xeD\275\315h^\274Z`\331\273\203\'p\275\210\017\334<\223/\265\274A\370t=\372\362|<\000h>\275\307]\336\273\225\342\233\274cV2=\207\256\267\274z\243\317\274\335\337\234;\222\311\360\275V\021\350:z\375\220\275\351\210\210\275\3670\022\275-\261C\2753\230\024=\227\2366<\334>e=D\216\327<]\023\354<\217\024T\275\317\310\264\274E>s\275\355\316G=\353\2507=\242k\211<\320\314\226\275\006j\335=\021*\251\275\365\310\263=\276_Z<\226\252\351;\354q\277;&\'K\273!\272\230\274\3710<=\272\207\350\275h\275\\=<g\265\273\266\363a=\024\256\213<\027yu\274Lc\357\274\322\253\021=\262\225#=\355\006%=\322\317\313\274\'\207\327\274\207\253\343\274g\240\352<\362_\245=g\'\205\275\211W\250<\177\376\325;\177a\316:\372\370\256<\332\355\322\275{G\r\273\240Y\346<\220\017\263=\177|\240=*Mn:6X\331<X\205W<:\242\373;\343\312v=\206^\024<\367\0044\275|0G=\036\254\034=\230\371\277\274T+L\273\033\321\333\274\355\364X\275\211\270\211\273\333>9\275\313m\023;\315\321R=\227\215\"\275H\212\250\274RM\022\275g\010\216=\356\234\275\274\3410r<s \264\273\020N\207=\301\261*<[q\260;\326\354E=cz\200=pz\206=\367z\032=\010\304\313<\242\227\351\274\3603\370\274\334\3550\275\306\331$=k.\221\275#\374\252\273p\3740=\336\204\242\274*YN=Y)U\275*@\333=\324\026\231<A\323\003=\205\030\227<\nUI\275=\261o\275;s\252<h\205\032=\350v\263\274\245<\\<\347\031r=\245\316\234<r\004\232=8P\306\273r\355L\275<$\306<\002J#\275W\347\025=}\210\303=\207\025\022\273\360\334z<S\250,=\251\336\250\274\321\302;\2751\221{\274\255\014\333<\352\243\344\275\300\376\271\273\346>6\274ll7=\2010\310<ek\272\274\274\342\253;\t\313,;B\250\232\275?\334F=\352aj=\007\222\303\274$\305P\275z\022\271;\227\334\205\275\213\363A<n\276&<\310\322\203\275=\003!\275\350\212O=\227\272\216\274}\030\024\275\302z\177<QQ\203\275\226I\262<\301\001\376=\325\2238=\202m\365\274\0309^;\303o\376\274;q\024<\"\347\024\273s\3210\275\350Gi\275\277]V\275\360:\035\275&\220\230\275\177\004\253\273_[_\274\211\367/\274\241}$=\350\350\231=\016r\361\275\357x\372\274\254`\205\275\371\255f\274\331\031*\275O+\216\274\004r\204;\203\236\215\275\271\271\005=\026\006\251<\336pF=\205\332\007<\263\244l\275\320bP=\2643I\275\254(2=>\226\313\274\254ej<%\205\204\274\237\302\"=\307I\372=i\351\247\274\312\360\207\275\037\346\246<<\222\230<\037\222\375\274\222J\376<\270d\307\274Z\244\250=u\341~=\331\332\371\274R\301\006\275\367\354z\275*\254o=\004\214\312<\247\217\237\274g\313\277;\262\3101\275\231o\322\274\233\305\234\275\335\032;<\253\324\000\275`kj\274\352\265\014=\340\357\032\275H\036=\275\027uD<\274\367\373\274\261\301\024=\334mF\275Y\301\000<\30679<#mA\275]\374\"\274\243\360s<\372g\261<m4v\275F\312w\274\224X$<\022y\200\273^\030\225;D(F=\020D\035<\315$\224=\330\261\017\275jT\205=\323\256\020\2757+\230\274\001=\270<\256\323\236\274\246~\316<\303VB=B\330\220=\0132+=\305\252]\275x\317\370\274\227\351\257\274\227\341!\274\020<\340\275\244r\363<\331\037\251\273\327\030$\275\006\034\317<\010Z\242;\'\217V=\201\275\255;\240\245\001\274!\262\036\275\213\352p=Z\345\327<@\215\240\2749y,\275\256\021C<\310\354s=\330wk=\222\030\205\271\341\255I<\3022\305\274\327\246\243\275\372\270@=\367i\352;B.\232<n\307\320\273Q\034c=\374\004\224\274\245\3662=\201Z\\=*G(<\341\220\240=\232\261\204=G\313\251<\037\242\201<\212[\237\273JXb=!\033\220\275A\346w\275R\267\201=\355\226\235\275\360\231\254\274.>S\275\'\226\236=G\300\036\275%^?\273\014\023i=_t\002\275\323+\016<e\225k\275\006\226i<\314\3270\272\"^8\275d[\375\274!?\223=\254\2146\2757\261\273<\273\032\227;\326\224\304<&\232\261;6\300G=P\252\024\274\227\231j=\360\327.=4\236\200<Yo\000<\262j\263=\263\371(:F\361M=\t1\345\273\037\002\016\275.l8\274\006S\031=5\\\226=\210s\244<\264\274T<:\313\237;\334\267\222\275\255\343\265;L\036\204<\226\332\200=\233\0052\274\020\214w\274\322\305\343=\274\230\024\275\270\310\242\274\354[\306\271/)k\274\352U\261\274,\305R<\207S\236=\252\003Y\275\034#\244\274\212\232p\275>\353\r\275\315\234\036=\323\r\354</\276\201=-g\023\272P\327\031\275\267\201\242=\353\306\264=\277\255V;\307\023\275\274\016\031\n\275\346Q\216\275\210Y\0258m\370\366\273T\310\035\274i\022\224;\303\334H=S\016\353\274*Q\024=zx\256=\013\023N\275\304\230\250\275\001\032\321\275\335\0308\275+Y\036\275\244\242\300=\177\351Y=\341\323M\275K\356\247\272\322\301p=\240\237\007=me\016=\326\312G\275c\034N\274\314(F<^s\236<\251\240\205\275\026\025\207=\265\312$\274\324d\003\274>\003\034\275\214\366j=6\0054\274L\256\243=\251\334\272\274\250\017,\275\325\005\002\275R\254\230<\251\255x<\t\n\206=\234\t\326<\304\373\236\2747\353\266\273\224P\265<Hn\320\272f\331\026\275Vf^\275\324W\206\273\371\321\234\275B\251\324;\013-*\275\264u(\275\355\004\006=\335\250\201\275d\205\223\275\342\331\322<\005\225\003\275>g#=\2012=\274\206\346\004=3]\254\274a\022C\275\231\370^\274\315\333\252\274\250\275\347\273\373\034\347\274\314\341S=\344\257\336\274\320:\001=\344\326\204\273h9\3429\256\2304\274\333\022\203<\005|\026>\\\202\206=u\3466=\230\342J\274\\\024\005\275\000U\277\274\250f\212<H\013\261<\276\320\372<#NF\274zX$=<\002u<\t\261P\275\360\251b=\021\260`;\245I\312=\311D\207\275z\255]\275nw\247=\361\264e\273\274\246\005=\312\277\t\275\325\036\204\275\204\251l=Q)\270<\265\327/=\202\242d\275\"\002(=\007\236\026<\003\007\216=bD\025\275\344\030\211==q\210\275\2674S<\204\352\237<\377\344\234=\210?\362\274\356k\325\274_\3674=\232!\251=\0374\311=d.v=\376\354\304;h6K\275\277\2051\275!\372\000>#$\260<\245\367\316<zj\244;\366s\362\2736\257\330\274\276 j=pR\246<\2441\034=\322.\256:\360 \014<QV\026=\323\025\272<X\354\301<tG\372\274>\t\000\275\341\010\370\274BG\262\275x\352&\275\301o\024=\272\326\020\275yz\026=^\254\223\2745^f\274\340C\010\275#\372\251\274\226W+\275A{\340\274x\365:=%\334?=X\260y;+\376)=\322cX\274\204\344\372;~\236~\275\222\0139=R\003\016\275^\266\365<\365\020u\275\376Z\327\273\"l(\275\200\223=\275\215\036\006=0\2441\275s\250\355\274\211\306G=\311#\232=\344KH\275\333\330\235\275\205\330R\274~\016\036\273\004\264\241\274\243\313\003=\256\331\236\273m\374\254<g\233\264=\266W\350\274N`5\275]\n\177\275s\317o=\340x@\275\206\004i\274\n\201*=\336\327\257<#t\223=#\310\330\275u]1=\240\\\274\273n\020*\275\313\350f<\032\357\253\275\314\374\211\273\373\203B\275\027en\275\252K\247=S\225\200\274!\333\032=\202\222&<9S\004=O\272\261<!\356\303<B\304\277<\r93\275\333\233\034=\207\363\336\274-\244:\274\234,\211=k\025\264<Jr\367<\n \242\275\225\256\037\275O\275\220\275\314\323J\274zH\357\274BA\317\274\317\031`=j\375\300=\231\211\035=$\265\212<\236>\n=q\026\242\275\243\322\342\274YD7\274\336\223M\273}\031\202<\267m\265\274\304E\220<\034\'7=\267MI<x{d\274H\272j\273u\233\332<\001u?;I\230\020<\310\323\036=\246\273?\275l\361\274\275\363\362\013\275,\317\257\275\343DP\2750q\221=\313\331>\273\026\244$\275\247\"t=<\276\354<\334\244!=A\206=\275M\334F\271\'\347\013\275\333\372\241<&F\222\273n[\321\273\317\r~\274\243$s;\t\017\306<o\246H=V\017\376\274\024e\212<\006$\224\275j\305/=\020\337\253=s@q\2714\271R=\277\363\'\275*\030\300\274R\354C9\246\353u<u\302\247<\273\026\022;\377\322p=\371\210m\275\344i$<hl4\274\225V\313;\225\357\246\274\027\004J\272i\360\010>\271;\237;\217\303\215<r]\006=\211oS9\316{\302<8^5=\016\232\302\275\210R\362\273\330\375\206\274\007b\217\275-D\206\274\337\232\224;cJ\n\275`\271\200;b\016Y\275.$e;\322@\350\273\273\3256=\266\014S=\016\'\246:\360M\277\275\351\264\t<\237MD\274\215|\247<^\332\'=\367\n\024\273Nx\241<\356.\324\275\251ad<\351\235\020=\177g\374\272\342\363H=\027\014-=tR\360<o\205\317\274\205\277\024=\320\246\200\274)\254\021\275\024C\332\273S\'\322\274l\307\301<\332\342\351<\323U\244<\355\231\360;C\373\213<\261\225\032<\213\023\220=\330\213`\273\030\241\026\275\225T\343=\020\037\r\275\276\036\014\275c\251\222<:\333\227;\265}\267\275\337\314$=\262d\367\274\303\344\314=~\210r=z\n\360\274\220\225Q=\367\315\366;\307t\025=\360=\206=\315\244I\275\245\212\267=\210\204@\275\367\351\277\274\037`\212\2750\367\016=\231\213T=ld?=\356\271\322\274\370\215G<S\374{<\010\364\251\274E\031!\275\272\033\351<\322D\232\274P@\020=\307\006\355\274\305\266\331<x\264\353<\377\341\234\275\340\252\226\274\327\327\221\275z\313\024<\324|\007;\333\260\323;\222\215\273\275v\362\262:\245jU<\275\036\016\275\303Q\213\275\023R}=O\007\304<\224\177\374\273\332[\177=\300r,\275\212\304\324<<\2525\275\262\336\"<\nn\342\275\376\336s=\267\344H;\353\246K\275\216=$\275>;\001\274\343\240\365\274\343\304<=\277\317\355;\t\3126\275\013\345\273;\273\271C\275^c|<+\017*\275\313\207\205\274\200\'\365<:\317\325\275\232\225]=\351\014\231\275\230\245\014\275\277\274?\274r$\217\275M\006\203\275\366W\023>\220<\023\275\252\371\322\274$\306\347=\215\333\210\275\231\332\277<|\345\031<\301\2162\275\000bf\274\337e\352<>TK\275\025\244*\275\340\322\t\275>\310\024\2752\204\202\273\256\213\322<\243\264[\274\231\377\227\275\373%\277;O\005\205=@\201\003=\322\234\033\271o$\205\274-1\200<9\236\005\274\"A\233\275\001\312\010<\217\232\022\273\261\357\014\275\001b\036=`bk\272\177\342\000\274\2001\220\275,\250\327\273\036\202o\275\227\343_\275\006\366\243<\220hg=U\017\261;\244\261\037\275\327\007C=\310\027\352\274\353U*\275T\031\205=\225.\001\274L\277!\2755\3740=\210\375`=R\222\217;\372k\252\274M\203\006\275\244A\277=\315\023\241;^\376|\275\232\002$\275~\332}\275~_\307;\223GS=\300<\034=\010\177\217\274#\364O=\213w\201\274\310d\006:u\365\306\274\013o&<e\364\235=\356\017\226\274\252\213\266\275\304^3=\307\024\017\275$\236\327\275\304\364Z\275\237\036\027=\372\002\237\274]\216\211\274\0232\365\274N\355-\275<\tb\273\035u\004=B\222\224\274\010\024/=\346\306\271\274D*\315\275\227\022B=fy\"=\373\221\021=\316\027\317\275\216\206\374\270M\247\236;\026\326\004=\370\016\313=R\340\243\275`7\244\2731w\276=\370x\216=;K\232<\355\366,=\016\341e<\024\243^=\017b\025<f\031\251\274\325\031\225\274qE\305;wa\034=\354\002\357;\331\247\033=\222\357t<g\326\013\273\2239\230<F\235L\274\237\3359<rN8<\314\305\326\274P^\320;\211\356\307\275\301\303\024\274\'\360;\275\330\323\221\275\334\330\023=\205\351\241=ZB\206\273\315f\204\275Z\'\301\274\251@\212\275\262\325\260\274\214p\327\274qQ7\275\350\232\316<A\205\274\275\367\323\254=\237\224\027;\336\264\036\275\\\340\003=rSB\275\220\242\316;\351Z}=1\010a<\300\022V\274N2\276\274`$\266<i\362\336=\313\263*=J\341\001\275AR\217;\006\303\316\273t\r;\275\325\354\204<\357\260:\274\275\274\025={\2439=\336\355\255\275\356p\361\274\332C\t\275\367`\372;=\030\303\275\360\014k\274\013\367)=f\267s\275\204~#<\372L\024<+M\351\274\222+\007\274\207\237\324=\336\337!\275\343\221\235\274\245\251/\275\313\223\032=\351\017\354\275C\370\030\275\010Tn=`\344\363\274,\355\323<\300\007\310<\377\201g\273\177\".;\271\352\365\273@\'\000\2743\306#\275\243\003\221=\005\360\243=\362\013\221=\241\347\367\274\025G\013=\336\361S\273a\336\314\275\0056\262<\335\225\236=\n\304\357\274\001\215\323\274\360\236\352=\2155\233<Y\263\333\274\272{{;\0175\034\274\031\370\002\275/\005c\272v20\275\210\252\265\274\355o\237;Xq\020;\261&d\271\240|\236=\035\234#=A\006\345<\264;,;!}\226\274\232\334\262\275cj\"=\340C\220<zr\r=\305\033\237=\357\244\035\275\365B-;\303\303\357\274K\337\232<Y\331d\274e\244\261=\032\370\032\274\3430\354\274J3\004\275\256\271j\274\327;$=~+\024\274\355\014\373<\357\333\334;[(\006\275\020\t\014=\361\363\210\275\244\261\235\273\230\020\t\275\030j\370\274%\373\021\275\033-\024;\274uD=\333\247\r<\226\277[=(\221\210=\013^\023=\324m(<\212\370\n\273\336\346\372\274/\002\212\274B\335G=\337\240*\2746\330\224\273\024\025}\274\n\375\"=\247L\007\275\0279\360=\227\314\237\275\260\256,\275\035\333\350<s\031\030=|_\355\274{\254\352\274\022\342\321=\255\t\222\275\217&\270\274#\370\232\274\377\274\273;\354W\030\274\025\3161\275\253K\227\274\376\373#=<\002d\275\340\251C<91\270<TD\252<\373\030\332\273:&)\275\307\340\037\274K\003\234;\271r7\274\365\370\215\275\211\371\325\273<\205:<\267\007\346\272\002\257\352<]\003\004=\223\030\304<&!\304\275:\213$;ZuK\2744\266L=\353\236\207\274\344\002\201=[\262L\275\207A\333\275FU1\274\377\377y\275\027^`<1\307\373<[\034\003=\230\363\220;\r\267\236\275!\366\264:\337\213\223\274YN\030\275[dp\275\007\242\330\275as\017=Y\230\261=\217G\377;\227;|=\213p\343;\374\333\007\2753IX;\210\325~=\223\035\261\273t\235\272<\232F\270<\254\356\002=\273\362\005\275\363\317\202\275\334\377\370\274\3174\003\272\346Y2\275Z\215\212\274H\247\347<\352\215<=\231o\033<\316m\274\274\243\347\n=T\275\277\274!\367|\275%\272\013<|\026f\275\\\036\303<N\224N=G\323\016\275\033\310-\275\243g\202=\273\221\261=\262=\331<\323D\005=\256b\272\273\234\364\230\274\253\014\343\273Z\005S<\203\343\375<\021\325\022\275\001\315\327\274\t\031\327=\365\020\313\273\027n\341\275\343\331\217=.\013\314<\376\222^=\217\302e<\270F\007\275\337\013\336<\2573\315\274\3659\240<\235\312\201=\017\327_\275\025\324f<\321b\350<\225\000@\274\031\033m=\004\014\267\274\344Z\312\274\205\362\312<\324\205\337\274P\177\327\273\365+B=\207S\301<\036=\226\275\201}#\272\010_\305\274\230k\t\275\236m\276\273\226+\320\274\223o?\272b\353\353\273\344\301\253\274\364\225\037=;\206\027\275\003(X=%\357y=\021\014,\275E\272\204<\210\335\245\274\003#\274=\354\014D\274\256\'\253\275\004\200\017\274\352\254\202\275;\026;=\315et\274\306\020\307;5\252\312\274?\247\337<\002\003{\275\016\010\351<\320:\231;\262\006\347=_\271\002\274\215D\365<\270j\266<of~=\026\376\232=\346\277\261\273s\250*=@u\307;\234\370O\275K\025\010<\354\220\237=|\'\252\273\326\032\316<\313\177\"=\315\312o<o\034\031\274\353sd\274NE}\274\021t-\275\270\315p=\361Q&\274{\033:=k\311\221<d\274\242\274\272\013`;R\215\321=v\n\t\275\236\321W<\316q\314\274\314<;\274\370\301h\274!\270]=\371\273G=\266(G=\374\232\237<\335\177\220\275\343@\227<B\231\240<\021I\315\274\n\373\352<\020\214\321<\265\242E=.\023T\274Mu\251<\223c%\274\031\316|\274D!\3578kf7\275N\312\023\274\313\037i=Su\004\275\255\212O\274\263{\266\275eL\013\275\372~L<\027\235\201\274C\267B\275\261G\300\274Sfp\275\346\2625\274*\010\350=\200\261K\274t\343\302<\320\232\217:\213L\305<<4\223;m]E\274\200\347\021=wk\003\275O\275 \275\333\254t=\266\340(\274\320_o=I;,\274\2553\017\275~o\013<1\310l\274\365\\t=\267\337\032<\026\217\224\275o\t \275\324(\350<%q0<\317\364\300\272\315\204\262\274\032\250\233\275\316>a\273\332\311\232\274Ks\360;\211^\352\272L\357\333<\266`\237<\267\316\212\275\263x\343\273\254\177\271=\260\310\261<\002\335*\275\373\317\034\275C\'\t\275}\223\317\275\313&A=1>\204\275\361\014\003<kE\356=\330\300\377<\026\333\377<\326\177C\274\236\303 =\204v&=\030\270\242<\376\037\'\275\337T\033\274\027\277\302<\001\'\025\275u[\220<\005`\004=\026\310\247\272\353\326\311<\2160\021\275\204\235\"\275S\203o<\361P\350\274\300>\234\275?\273\027=)\202\206\275re#\275\013g\004=\241\217@<\353\251\345\274<La\274B\211\326=\255\016\351<\250\3746=\004\223%\275\276\242\000=\361\372\377\272?}\203\274o\031\227:]\'\220\2757\324B=\270\2423=\230\337\275:\251\370\354;V$\203=\313g\263\275\262\352y=\2256\274\274$\247\220\275\244\352e=i*M\275\310\210\274\274zJ\355\273\250\357.=\202\207F=\354m\317\275\300\\\377<\323Z\240;>\260M=6{~<F\252\274<\202G\211=}\352u<DT\347;\335S\352<\341\033\257<\366\254\213<1&\323\274\264\\\027=~\312X\274\357t\314<5\033+=w\376<=\343\262\223\273\037q[=\002\273z\274\3535%\274\201<W=\034r\251\275\301\033\022<09\032\273\233\345\333\274\300\202\277<\302\301\353=E\222\314\273[pD\275\245\244\026=wt\034\275P\035>\275\274\367L\275\344\321=\273iUp=6\305\241\275a|\032\274\005y\010=\307\227\201\275\344}\301<\336Lo=S\223\177;\235\024\021\275X\237\370\273\025K\233=*\333\354\273\277|\272\274\271\241[=r,\322\274\213\222\342=-f\351<\261e7\275\344\256\003\275f\305\020\273\344\242\230<\363\361\365\273j$\202<\261\356\010\275&9\355<Y6\267<\30141\275>\3541\274H\237o\274(zD=\212\335\004\276|?\316<\343\364\006\275YXg\275HU\035;T&\037\275a\353\223\275G\201\201\274\314w\227\275\374c\241\274\207\231\201\274\203E9=\316gE\275\370\272\323<\030\027f<\265\340A<b\335\257\273;\261\r\275\207\266\242\275\261\325\013=\020\364\024\274\210\271\264\274(9#\275\266\025\377\275\351\357\324\274\351\241\003\274\363\260\035<\007\326\363<\t\217\224=g\224]\273\332-\247<j\305$=\355\2722\274.\216V\275Y\177\314\275\253\270q\274\010\332\375\274\243G\254\274\365\261\001\275\333\305\211<\246\330\224\275\377d?=_T\030\274y\013\376<\331\202[=w]\210<\203\370\227<\252E\373\274K\327\317\274t\035\323;S\177\001<\r\273\177=om\t=]\303\350\274\305\337\006\275\205z\216<\371\266\t\275\237\342\306\275B\373\235<6\234\207<\233\376\'\274\'\227\006=\022x`=y\213\2719(c\337<\225!$=\241q\002=\021/\003\274\252\233\037\275\004\017\312=\366\315\262=\362\023\322;\207r\\\274\245C\036=s\310>\275\334\237\021>\013\213_<:\340\370\274\331U\274\2736\300\350\274E\002\351\274\264j\211=\213P\212\275\206\013\360\274Q\017\225;\252\013s\275OY\236\273\376y\303<\'\203O\273\341\216\031=\213M\316\275\347\241M<.\320\033\275\357\'\277<\374\223\177\274\345\234\025=)\315\370\274LR9\274\357\342&\275ll\225\2745\236\232\275\273\360\341\274\356y\007\273RE\236\275\315N\351<-[Z\275\361u\243\275\272c\320;\200PH=EWa=F\253\265\274\177\375\202\274\333\030`=\246\316\331\274\321\323\272\274z[{\274\300\341\000=\022\030\t\275d\034\204<\216\330\232=\003_\004\275\360\235\344<?\310;>\277.K<\024H\221=%\334\236\275hI\240\2753j\335\272-\236H\273k\033\373\275H\000\323\271&\373\226\274\276\263\024\275z\374><}]\225\273G\363\177\274\330\331B\275\274\330\225=\033\016\214\274\330\343y\275>\003!<[\026\311<M\320\007<bf\200\274\333t\250:\013v\346:\345~A=\030\022@;\237W\217<U\275\304\274\333\264\003=\261\034.\275&\252\325<\271\036Z<\000\223\022\275&`.\275~\332\371\274\267Z\206=L\027-=\316z\030=\245\210\231=\322/\262<\245\032k=-y5=l\261\202=@5h=[\352\307<N\036]\2759\004\257\274y\2350\274\355F\242=*\000\273\274\330@Y=y\354\035\275}\036\016=\206\346\377<3\006\240=\325\334h\275\266\362:\275X\266\207=\347\365==\260\325\033=\037w\000\275\217\344[\275\003\311y=\030u\313=~\327\256<n\203J<]\310\272<)\353x\274\350\224\277\273W\206$=\221\366\332\274\221c\036\275^U\331\274\321\265\006\274\271F`<\352\257\233\274\264\360\261\274p\275\230\274+\262\215<Z\327\343\274q51<>N\314\273\230n\333</u\207\274\307\014\007=0O\007=\254\217\262\273\305\2661<\"kr\275aS\210=\020\370\247=\254\334\353<\231\027\254=\251\246\004=\350\365\225\275\313\365\254\274\377b-=\n\275\014\275=4\277\274e\324H\274L\307Z=\036c-\274\340\307\034=\"q\231=\0320O<\252 \t=\275\332\377\274\277\023\036;\036J\274\274\373n\300\274\203(\n=\022l\217=#\025\r=l\371.\274 x\224<\032;)\273 *J\275*\243\235=\347\026\230=\276\266\321\273f\253o\274\026\374\036\275)\321\277\273\220^\030=2_\367\274$\310\322\273S\217n<\340\237o=\265I&\275\363\340\200<\021\274U=\300C\216\274N\'\334\274\210\035\003\275\037RX=m$\201<\204\243\332\274\372R\362\273\234h7\273\326\030|\275\312\246\006\2755\335\214<\235\000v\275zqq\275\213\200\031=k$\235\274\375\350\013<\253\'\210=\362\351\315=B\300\374\274\2739k\273H\252\177\274\267\377E\274\327\'\204\275\362(\236\273\262\237q\275Z#\320\274|\217\005\274\312\023\353\272\032\237~=A\010\025=W\373x\275H\332\005\274\313\007\275\274u\266;\270$\r\206<\'8\376;\325O\233=\216\332\370\272\370q\000=4l\202<\216\213\367\272\201b\213\275:Ew=;F\231<\256\275,\275TG\373\274\237&\351<S~z\275^H\326\274P\254\231=\302\334\t=\245\266\363\274\265\376\303\274\301n\301;\0342\227=\236\\\"\275l\206D=\251\005\264\2737le<\332\331\302\273\255\251\"\275\367\370\035\275\300x\235=@\245U\275\2220\232\275\317\336\357\272\222\375I=X\276\331<\234\027\221\275\355\030\302<\005\031\336<h\250?=\373\256\232=\177\345\006=[\366!\275X)E\275\374P\241\275M\350X=\3659%\275\0175\253<\014\242\t;|J\246=\335\304\005=z\331\207\274BR\340\272Z\312\355</\263U\275\31027\274t\002\003=\366\250x=\354\032{\274\254\277\n=]v\362;P\276\227=*\034\205;\325<X\275{S\360\274\222\373+\275\016ma=\300\210\263\275\263d%\274j\016j\274\2243\";\276!\314\274\315\236\210<\240)\007\274\355?w=\2256\260\274u\031W=d\007\313\274\200\261\207<=\345[\274\237\277 \275\250a\373\274\3042\t=<\2645=\230\027\005\275\255G\307<K\260\020\273:\332\005=%\261*\274\362]\037\273\034\324\226\274\206\376{\274\261ny\274\212<E\275\317\t\326=,\252\243\274\2657\036\274%\362\273<\363q\321=\271\243\317\274\315\001N\273\020\036\245\275,\271u=\367\312\301=\375\265f\275~\033D=\330\nn=\322\272-=\207\257\333\274\363]\201<\223\312\021\275\346\036^;\303G%\274^\210\356\274\353\347\331=\365\224\214\275\254s\301<\013\304\321\274+\372\315<\271\001\256\274O\332=\275!\031#\275\351;h=L\002\253\273#!\270\270\220\317\002<K\033\205\275\256\025\320\274\227\277\n\275n\317\232\274\333\371\334\275\032\r\212\2713\3307\274\017\372\266=\341\000\251\274\303\267\033=\260\004\216\275\376\340\017=\307\206\235<\016\302\225=\270\265)\275\036j\214\275\004X\266\274\241\267\246\275>\235\303\274\274\326\024=70-\275\356\336S=m\210}\274lf\020\275\357!\362\274\344\035?\273\356\247\214\274z\376m\274C\211\376\274\035f\324\273\205\216\277<\247\317N\275J\325\205<\342\345%=p\373\036\275Z\205\266\273B\336\307<\205\007&=D\257)\275Un\247\273\006Mg<7i\000=\276\003j=`\232\371;\r\272\216\2731\252w\275qW&=\013\002H=\376\303Q=\262\243\030=\354wH<\235\233\306\275u\207i<\242_J<\367b\024=\340\334\014\275$\211X\274\217\352\036\275M[s=]\007\340\2727\346\002\274\\z\253=+G\202<\023f\313\273\225\t\233\274j:\227=\300\002)<\272\366X<\267F\226=\343\313\211=,\372\022\275\206\353\216=\263\337\267\274|J\003\273\220M\244<\0021/\2750\336R\274\374k\314;\204N\274=\353a\222\274\241\200==NE\270\275Hi\003=\326%G=\240\271a;*p\277\271\010\037\234\2756\"b<\335{?=\206\275\031\275hR\372<6Ws\275:\2372\274\231\320\004<\333\375\024\2744\215\276\274\3173\\=5\273-=\374\342\237;\266W\224=o\022\255\275\363\253 =\314\214\330;\271=\272=\000\215\223=\016\013i\275@y6\275\320\216\002\275\303\005\231\275A\264c=^dO\275\020w0\275i\330\326\275\226\223\224=\'\265\322;\211\300\245=\343\236\025=\371\3406=-\242\302\275\246\217\366<[\227$\273@\245,<]\024\363;q\345\234\273\220c\272\275d$\220\275\017\206\363;\027\317\376\274\001\216l\275\367\3613;\032~&\275\232\257\374\274\315\373\'\273\030\307<\275\2272\030\274,\240\244<7\024\206\2747\335<\275\264\024\233\2747L\033=\303\211\202\274\004\205\352\275\036F\275\272\345\266y=\\\037\223\274\352\264\237\275\251l\017=\274\2503<%_\007\275\261\304x<\\\271d\274\337M\033=q\324n\274\316a\021\273\237\276\003;\005\265\204<\354N\212\275\347q\330\274\263\325d;\336M\"<\307\270\232=\025\315\246<\003@\206= \230$=h\021#<\334ZP;\270\205H=\355\371>\273\020\304\274=\303\005.=\026\316Y\275\226c1\275\r\007\237<\320/^\275\254\263\025\275(\217\223<9\227\217<r7b=\343\252_=zo\264\274H\357\031=h)$=\233H\322=f\304\317;\247.\277\274\262\255\006=/\365Q=\220\327?=\205\314e\275\247IJ<\n\037\265=\373\362\241=\214z/\275\266\344\361<\224\205\272\275\240Y}\275\334\315\343\274\246\330;<\302\262\277<\340\341s=;\261N<\336\235\302\274\272\026\326;v,I\275\275\375\207\273h\037\313;\221\2763\275+\0214\273P\277\264;\200\246H;3\263\267\275\"\036\n=\252\314.=\3760\004=B\2047=+\240\000\274cxO=W\376\225\273sG\237\275\257%*=l\010<=\325Q<<?i\013=g\335\001=\362q\267<\240\004\235\275\342\373h\274\224\337\227<\227\356\010=\212\267\271\275\257\325\335\274k\334\256<[\r\033\275\300\233\334<\362\306<=\337\325\027=\304\2513=\357jK\275OD\033=\257\n\314\273?\013h<d\336^\275\030\"t\275\226lg<\300\361F\275!\356\001=T\244\334\274(\213\035\274\253\000\263;\3226\326\274J\256\023\276\261\300\"\275A\352B<\2678\203:\243J\321\2739\266\206\275\312e^<\010K[\2751\227\367:8\340\036<\325\320\341<\221\342\221=]\037\022<\032\227-=i]\332\275\007\377i\273f\244\331\271H>\257\275\230^\"\275t\320*\274\226\357\021\275\377\353\227\274Q{w\275\0055\372\273v\321\t9\207\364K\275\035\246\222\275\2425\021>\0331I\274\356\317\262\274\267\315\347=6$\027=y\350%\275\236F\333<\034A/\274\222\302Y\274\253Q\322\274\304\360\002=\346\272X\275\342[\242;.\236\202;\341\302_=\"\\;=\345\306\323<\302\'\024<6y\014<\335X\245<\303\253s\275\245\"\242:\221\341u\275sj\331<\002Z\013\275\200\227\320\274\226Iz=K\367>\271\002\205\263:q\2261\275\026j8=_T\347\274K\207%\275\273\333O=\321\322\255\275:\333$\274E.9=\2471\363=GP\220\273\343\276\370\274\233\252\026\273\201\220\027\275~\251\231\273G\350\036=\252\205\311\2747C\007\274\262s\303\275\263\376F9S\030\337<%9\025=T\260\313;\206\357\263=F\261\240\2754\277\317\274\264\250\211\274\261\257\254;\361\265A<\371\200\274\274\036\3118\273l=\017\2759e\303\274w\032=\274\342\026,\275U`7\275\252n\360\273\213\313\240=8`\317\274[\343\371\274\2442\257\275n\223\226\274\2225\212=\023\003F\274\373\244,\275\246\200$\274\2670\315;\361\3571=f\207\031\274^\340R\275\324h\021=\371iJ\2757j\373;\240\225k=:\031\344<\317\365r\275\245\260\207;U\372O\274Qb\306\274YA\206\274~O\210<\300\321\274=<3\005\273\220z\351\273\036%p=b\306\361;\331\316Z=\361\006*<I\267B=\352\215\305:\311\201\200\273vR\233\275\231\220\321\272\366\313b<\307\221}=\250\210\340\273\261\t)<\nP\250\274|\214O\275rD3=\365\326$\274\007\270[\2734\232\255\273:E\201\275\334\236\217<W\275\246;\004s/\275\221\023!\275\332\206\000=KN\306;{r\234\272w-\007\275k\343\232\274\022\265d=\241\002\274;\357\023P=@\231\323\274\353uH=\241\301\026=r\354\324\274\271\273\005\276P\317l\272>\3476\275y\243\302<\"\177\230=\262\373\326\274:7\226\273\001Vw:\345\257}\274Uk\363\275\266\374\232\275\373\354\324\275\357\366\343<|%\013=Qp\203=C\213?=_\270\254\275`\371\215\272{k \275D\365\203<OLg;\356\216-\275\323\t\306=\010\343\213\272\232\216\372\274\305kX=\030\311\245<\370~\211;b1e\275\327\014x\274\220\204I\275\364\235\203\274+/\235\273u\351\240\274\231\034M\274H\236 \275\355d\226\275-5\274<\347\240\202\275\210\214\324<\254\201\356\274T\rG=\323\336\345\273\367\1776=\354\002\213\275*\024\264\274\341\264\'<\334\377\216<\233\356\231<\244\325s<\026\027X;\210\t\225<o\255#\274?H>=\232\\D=\361\223\247\274\231\275\210\275^\000\215<\345\231\226\274\004\203.\275\255l\004=\247\006k=\245\315:=5\177>\275\373E\334;\325^]\275\266(\r=\201F\272;\257\021\031\273\344\346Z=\231\3158\275\375\233\340\274\272\037\365;\300.\217\275\n\320\016\274Q3 \275\003\230\007\2757\354.\272\261\364\235<Z\274v\275\261\236\244<\366HR=g\365z\275H\226\326\273\004_\230=LK\345\274\335\314\266\274!\227\234;\002M\025\2749+\304=r+Z\275\225\364\016=M\374L\275\200\010e9\2474~\2754\t\331\2713\210\222\275\334\307j:\271\244w\273#2*=\033\036%\273\241\365\002;\363=Q\275\326\332g\274\275KL=Y\215x\275]1\244\275\025\325\023\275\2456\321\275@k\245</I\212;\336?\353\274\370\277\232=X\335\252<G\r\230\275\331z`=K\203\316;\210\031\t=\2735\336<5\345\206\274\324\220\317\274\221\375\323\273\004\236\255\274)\277\275\274S\3512\274\003N!\275[\245\231\274\327\007\032\275\263\256<\275S\340t<H\343\344=\202r4=u\251\005\275\256\357\004\275(\037\214\2754\255k=C\250\330:\265\271A\275\305y\214\274\005T\203\274\361\0028<\265\340\235;o\273\322=\031%+\275Q.\"\274\036T=\275E\306:<\343e\335\274,\336\364=\307\\\203<\021?\034=$D\250\273\361{\326<&\347\317\274F]`\275\032gj<\326,\226=H\364|=lj\351=O\014\302\275\264\245\035;\275\rE\275M!\205<(\020\3509\232q\026\275;\230\322\272\233\331~\275\213^z=\210\377\022=d_\025=\026\365h\273i\316\246:R\353b\273\267\023\361\272\021\216\325\275\027d\261<A\335\\=\270\037^=\016o\227=ER\224<,\301h\274\362=\321\274\206$r=\213iJ\274\'\354\023=/\000\213\275\213;5\275\030\247\230\275b\254Y=\006\314\316<\361\256\350<Z}\r<\332m\017=\216\342\200\274\357\364\211\275py\'<H\375~\275w\2202<\024\236\223\275XA\317=\226t\346<\032\346\035\275\036\320\252\274\314\236\331<\214C\202\272\007\316\310=\374^\206\275M<\025\275<\023Q\274\002-\205;S\305\202\275h\261\221=\376J2\275S7\212\274\371\017\337=\022 \315\274x\227\020<\2506\024=\200l\364<\275z\256\272\273\"\246\275\252\004\305=\314\t\371<T\313\037\275Hg4=\360\002\353\274\203\345\323\273q\242\244<\327\331\225\2724-\242\274\277\301\201<zed\273D&\233\274\020R\345\273\177ib=\326\360\027=\007\337\323<\346\030L\274Ie\027\275\237[\220\274\312\262n\275\316\013\177\275\346,\335\274\245\235\200\2741\376\331\274\036\267N=9\030\261\273\25606\273\210n2\275)\326e\274A\373\333\273\205\364Z=*\260>\273Bf\013=i.\317=\250\302\364;\377\215h<W\377g\275\003f#;M\"Z;\250,\231\2750K_\274\254\205\225\273\216\240\202<\017\254\017\275.k\336<\'\330<=K$\033=r\205]\275A\374\330;\\@K=s\315v<y9q\275T\231\265\274|\013\000\273K\0379\275d\216S\275\321\266s\275\022\242\305\274\241\252q=o9\244\274^\266\023=\300\272\250:\240\206\034<\232|\242=\023\214l=\331\242\234< \023\255\275\321\254\227<14\242:\357\370\221\275b\245\216\275\372\362\331\274i\365\237\275v\017\001\275\337\350\360\274\254\366\335<\351y\223\274x\007\247<\251I\213<\014\376\273\275\203\346T\275)\007\206\273\241z\215;.V\246=\245lv=\020n`=\331)\021\275\265\001~\275\346\361\256\274\304\001\323=\001\254r=\264\366/=@Q\277=\3002\016={/\216\272\026\240A\274e\371\030\275\222\326(=\276\014\236\273\360]<<\235\243\340\274\010\257\323\275`\335\t\274y4\n>\376\307;=\000&6\274U\301\t<E\240\207<O\273B\274J\232(\275\223&\260=P\344\250<\372\301\204\274\264\014\017=\324d\027=\341\025 \275a\033\340<\226\'\224\275\2771\271;\317O\216\274\342\211T\274\320\226m=n\300\246<\016\224\346<\346\306C=\224I/=(\330\212\275g%x=*:\323\273q\035\024\275G\013\013\273\316\332;=\347Gg<\033C\004\275|.\362\274\007\224\t=\201rt<\347\023\355<X\241\014=gZL\275q\3672\275\232\327P<\266C\303\274/])\274=[\302\275\272,\370\274`\305\016\275\356\0106\273\366\037\343\274\035\312g=\333+p\275\367r\302<\n(\351<\314\224\244\274\340`\013\274\256|\240=\262.\304\274&/k\274L\003\262=\002``<G\2364\274\355d5\275A\363\264;\311\273\237\2757\270\014=\353\226\\<V\206\211=\333\005\210\275\345=\330\274\211\256S;\272d\276\274\3202\377\273\3451\344;\223\376\341\274T\374W\275jT\204:\336)\371:\241\306H<\372\014\354\274\027\311\235=j\211/\274<sE\275\215\007I\273Z(\343<\360%\255\275\r[\262;\256\364\231\274\334\360\016\275\007U\207<4\362\211\275m\252Q=\367\246)=\241\302~\275\321\325\177\274\273\300^\275\035\322\026<CV\210\275\006\204:\275\"\326\217\275\225\332\366\274%C\177\274G\372\345;\334g\276\275\321KU\275,-;<0K|=W\323\231\274X\264\243<3\216\340\274r\017\262=\355=:\275\377\272g;\276\030\2038\335\375\347\275t:\224\275\3065T=\032\274\220\2741)\206;\245\203\001\274\027/w\275\311[C\274\240 \327\274\374\023\260\274\200Q\372<\346\004\253<\210\2316\275J\362\200=2\372\310\274\362\352#<\027a\232\274\305\275\351\273\226\0344\275d\371\344:T^p<G\023\037\272~(\214\275\254A\260\275\001g\014<zZ\277\274\202)\307<j\230-\275\025\236\037\275\375\257]=ctI\275\021\227\302\274J_K\274\364d/\275\253g%;\024\355\020\276\212\277\274<M2f\274~\020&\272w\234\007\275\017\216+\275\213/\344<\031\231\024=\377\032\315\274\333\017\237;\262\0049=7\341\343<\t:O\274n\247\256<\376\231F\275\217\265P<\003\361\363<\377\024g\273\200\370\017\275\224M{<\360\237\200=\223t\226<TIg=Z\032M=i\256\033\275\007\335\236=\221q\210\2752\033g\274l\324h\274\255\350\327<\375\331j<=\365\032\274>!\350\274\031\340-\275\213$\225\274\377\322\030\275\003\250\324<k}/\275\316t\301=\361\353\243;op_<:\264\317<\353\365(\275tQ\014=\200$c\274\"7\206\274\354\233\334<\331?x=\037\324;=\235g\304\275\266\201Z\275\356\225]=\026n\223;\335\330\010=\327\207\017=*\n\262<\320)\357<s\212\017;\326\276\243<\214\336\362\274m\013\216<\247\243\200;\342<\252=\210]\027\274\264\236m\275V\001V<}&<\275\303\322\216:\356\343\023\275|:\321<b\306^\275\233\t<<T\377\270<>\350_=\026\377\245\274\373\222\211\274~\376\230\275BDM\275\275\245\020\273X\265\307\274\263\332(\275H`[\274.\316\343<D\3158=\312A\'\275\361iJ=P\225U\275\234\216\226\274\360Q\231\274\254af\274eS8\274\206\305\020\276\270\333\264\271\227\3650\271\262:Q\275\264}{<\270\304*<\235\006E=8L\204=h@Q=/\305\337\272\327% =\nA ;\033s\177=\313\r.\275j)\326\274\\\364\"=\232\311\210<tY\257\275(\\\007<\327\336\227\275I}2<F;\305<&7\\\275\230L-=x\223w<\263b\202\272\023\200\375<b\321\327<\002=,\275\216\324!</\037-=\257\377\323\273\021!\320\273\000h+=\307\231]<\223\036\024\275\253\201g=X\246\205=\tDP<g\004\351\2744~#\274\305O\217=\261D|=\314\212\201=\245J\027==Z\245\274\343\001p\275c\026\005\275\356\375d\274x\013\241\274?\217z<O@\264=\257\240\243=h6\003=\245\332o\275\200\211\206\274J\007\232<\247\200#=e\212\037\275\007R\270\274O\373F=\332\262b=\355\225L\2757\254\211=\035Tp\274\324tV\275\374\217\352\274\320\007\206\274\357\373i\274\330\356\233\275\262\307\030<\371[\371;5\267\035=\314\261\246=\243l7;\305[k\275!\221\027\275\267\300\005\275fa\222<z\\\030=\205$\320<\276\363Q=+Y^=\352\006\231\274\222\337U\275]\256\030\275\272\'\035;s\r\345\274w3\222\275hx-=\300\004\017\273:g\274<\tO[=\236\357\317=\237\001\214\274\236\324]=\224\322{<2\2121\275b@\247\275$\343P<\324\346\203\275\252rR<\263\221\211=]\032\"\275\233\224\025<\356\025\034=>\353);N0\212=\321\276\356\273o\256\020\274\231\360G=\253\227~=\324)\034=\252\372\255=\034\203m=~v[\274#:\335<g\266\027:\0131\346\273\370S\320\274*\033\303=Gl\236=\004\251);~4\206=t\2727\274\202\372\360<\230\263S<H\224[=\240\322N\275\351P\233\275({9\273\251\023@=\"MB\274\316\032\205\274\265\3244:\324.\006\274\201Ih\274\332\311Q\2748\022R\273\260~1=\232\n\365\274\306\373\002=^D\213<\r\002r=4\036\230\275\333\276\255\273J3F\275\'\352\224\274=\350\311=/\247\r=l\214\325<l\226\242\275\3416\370<\'\0276\275.\214\035\275p\345Z\275\353\244\226:\335\234\277\274\303)\375\274S-\273;\320\370\251=\026\231G\275w\221\232</D\324<\357\223\245\273&`\354\273\016\034h\275\262\371\322\274z\215\273<\300M\251=;\241*\275\243\'I\274\211\367\241<\005/\223=\2030\305\273\203\034\n\274\367\202\231<2\246\266=h\211\273\274\303\013)\275Re\357\274\340\342\014=z\225\265\274\211\332\366\275xF\262<\204\215\204<\233q\016\275\357\346\223\274\020\265\252\274\036\323j=\237\270\236\274\001\320\211\270j\334\037\275\003q\200=T\023\016\275\267/]=\342\363\347\275Syf\274\317\325\"=\001T\206\275\340\217X=\362\226\\=\213\224\274<\210\232Z=\247\253\225<\036@\350\272}\260<=%\032\351<JC\334<\355\257\305=\r\342\006=\270?\266=l\246\350\274J\230\224=A\341\205=\202^\241<T\033(;}\263e\2742\264f\274\216\374n\274D_\263\274SU\304;\220U%<!\243\242<\034g\t\273\'\301\227<\004\333\211\2749\316a\275\031\353?\274\357\253\260\273\200\356\233<\243P\263\275\221FL;\370\351M\275\261\231U\274\274L\363<i2G=z\366\006\275T&l\275\343Y\377;\264\304q\274\367\013\255\273\210\3356\275\304\2633\275\004\224\025\274\303\365E<\303\361W=@ya=H-i<\372,\334<\350\204\211\272\354\001\317\275\323\206\207\275d\013\233<\275b-=E6\215=y\230\347;3\303\r\274)\340==\263\204\031=\014#n\275\311\023\t\275m\2445=\332\363\027\275\005]\004\275\204h6=O\345\004\273\211\317\032\275V\343\250<\221\256\265\274\016\t\222\275\324;\257<\232<\315<\026\335Y=\tr\215\275\t2R\275\177\306:\275)\357\330\275\373\312\347:\316\362\230\275\223Q\016=|\370\000=Zf\374<\330\201J<\n\355G\275\322Xi\275\233V@\275]\227\363\274!\366&\275D\246^=\344\341\021=\177m\024=CT\327=A\306S\275\350\331Y<\222\330C\274\235\177\275=\261\332d\275\344\324\204=\031!U=\234\341[=\224=\245\273,]G\275\313\027\024<\0032\217\274\325CG=x-\034\275,\304\361<\276Q\273\271j\376\206\275\346\370\247\273\342/\025\274b{p\275\375\347\271\275\'\233\331\273\337\036?\274\224\334\240;t\330\203<\244\235\230\275Z\270n\275=\007\366<N\036\354<e`\214\275[\t\213=\331\372\202=&\207H\274\375\271o\274\255\027@=\340\340\330<\301\'\002\275\364\255&=J\353\342<\226\303\361<\316n\256\272\244%\267\274\3158y=\246.\316\273\023\335\214<a\0367\275T \270<xXb\273\212F\216=\363\242H\275\377\351\335\274\214\360\307<\223\242\246=\020\351\216\274\307\201]\274\247\340\003\275\025\272p\273\273\215*\274\177\314\207\275\002\320\335;\027k\201\275R\242\211=1\335\301<\270\010p<]t\002<\345\262\352\272\224\322O=\270\206\270;\016\356\371\2746\354\322\275P\231\025\275\305\021\252\273\200\036\226\274\017\002H=\266\211\344<~\272\265\275C$\330\274\214\020j\275\263K\343=\342\361s<\r\374}\275p\276\006\274\'\002<\274Sf\025=\344\324\250\274\330\256=\274Ji\374<\360\343\301\274$\363]<k\256\032\275hpe9^\035\036\275\201(\034\275%P\266<`\377l:\227^\304\274\355f\200=\010\275\200\275x,\360:\001\261I<\377d\271\273PD\276\275\313\017\357=v\352j\275L\357\n=i\020\360<\33368=\277\034\333<\275J\310;\374n\276\273A\310h<\"D\210\274\350*\325\272N\247\257\275D\361:<\3207\361\275.\363\221\274\275\327\272\274\354\271D=C\377r=\316\0351=\205%\002\275\356\374\'\2727\001a<&&\006\275\353\022S\274\034\022\334;\331\321\217\274\302$4<\010\014\253=\2411\237<\251?s\2758\317\211;h\317b\275d\223\222<,\357\317=\241\275\007\275\336\336\t\275\223\310\201=.\200\261\273d7\3208 \364\300=1M\250<L\000\256=\370e|\275\267m%=O\201\255<0k^=/1\006\275\263Z1\274\022\025{=\353\0343\275\261\271\006=\'\264*<M&\t\275|\n\276:\020g\315<e\344+\275\327Z\351<\340\026X\2755\201\230\275T\313k\275\200\016\340<\362*\344\274D\3545\273\232\321/\275\035F\026=ZlZ\275\351r\244<\037}\033\274\007\223\366\273\345B/\274k5\266\274\275H\001\273\340\206.\275\256\373\230<\277G\277<Jg\271:\277\030\216\275\246\232?<{\371\335<\024\355\251<\374D\027:@X\037<A:\373<;\261\301;\004\226/\274\260\320\210;\203iD=\251\270\327\275A\\P\274\001\255\352\274\356b\025<{!C<$\370$=<J\255<\203\307\215=e\300j=cO\374\274\256\327\240\275:\326/\271\2051N=4\253\022\275\252:\251=\016\256\016\275\346x\007\275/\277\020=\277Y\377\274\244]\237<\244 \240=@\210\253\273\250\266\002\275\277\006\023\276\355\315\352\273=\222\177<\340\224\"=\334\004\014;B\377\374<\362\305%\274\356\300\226<F19\275\364\354.=\306\206\177=\326v$\274\211\371\266\274@T/\275\275\310#\2750\375\211;i\nZ\275!u\315<wS{\275\366N?\2752\\\375:kF\217;\330\234\277\274\265\210\271=\371o\247<5\326\301<\262\233\325<\004\271-\275d\027<=\210>\330=\323\033\020\273>\205\254\274\243q$\275\364\365m=\254\356Y:\361V\317\273\262\212\002;\264}\032\275z\240k\275\312\355u\275\302\375\350\274\272\340\377:\276\306\037\275u\033\033\275\007[A<\227\332\300;\362\366\274\274\367\263\224\274wr\255\272\254\rP\275\316T\333<\014\022}\275D\337\200\272\301W\270\275-\220\245<xc\265=uIJ=\016]J<\2455\314<\231\177\362<\257\017\241\274\210\234\313<U`\200=\037A\336\273[\303\304<.\r\230=_9H<Y.+=Bi*<\341W\035=G\243q=\364%\2529\302j\340\273\302\332:=\214\331\030=\353\235\005=[\305\335=\250E\311\274\200:\2439\232t\231\275q\303%=\177\222\252\273\374\t\250\275,\376L;\205\332\210\275\367\234{=\"5\204\275\305\242\217\274*\016\031=\274\245:\274/5}\275\206\220\227;\004\372\233<}\251\333\273\265#l\2754f3\275\031\317\305<\251\254\224\275\271\2172\274\330\276\005<,\306\n\273\344\263\264<\332\372;\274\341\3417=\233\"\037=\256\333V\273\226\200\347<\266\"\2209\203G\324\274\320\233)=\363\242\225\274\202\257\363={\253N=\313\2371;n\232W\274\353\275\363\274b\347\201\273\253\214\227<\322\312l\275\206\t\201=x\023\203=\340\rL<]\265\"\275\316W\373\275b\217\3318\rzU<r\332\005\274\330ES\275\\\341\367<\021\002v=\245e\200\275\366\364<\275\244\026\210\275\235\245\002\275\221\270\375\274\346W\366<\024\245\346<\302\006\231=$\240\353=\014P\377\273qW\027\2757M\346<0\206\246<j.\326;@\225\000\275\274\t;\275\312pW<\354$\212<<f\035\273\341\244d=\247\240\376\274% \223\274`\247\036=PrT\274\371w\316<\342&;\275\035\341\266\274\357\254\020=\020g\002\275,\321k=j\342\342\274\221s\324<r\016\005=\243\355\347<\336\237{=\372\033\000\275\"\376\010\275\017\213\242\275\325\255\275<\377\241\214:\206\245=\275\204\332H<\225D\330\274\207\3641=\307\260\255\275\366\365\312\275\036x\020\275d\273)\275\355\275E\274\003M\207\273\250t\324<>u\233=X@/\274P2\342\274:\346\025\274Q\3145\275\'\342\r=\326\221\014\275iP\001\275\331\3555<\257\227\356<\3209\230\273H\234\006\274\217\021\352<\267\262\020\275\341\354 =e\025%=\002\"\306;g\203\226\275\021\3745\275!\303\030=\325\262\022\274S\341F=\275UW<\351\322\300\274\nH\005=\333a\023\275\r\324\276\274\304\232(\275\335\235v\274%\311\223<\305C\265\275?\032\261\274\r^,=\360\275\261<p\347\354=\321\034\020<xr\311=\245(\374\275\361\267\355\2739\203\214\274\210Y4=DE\360\275,W\277\274w\256P\274\323\252\305=\32083=\375N\204\274\332$\230\275\332\254\304=\022-C<\205#?=\210\214\013=\222\203\203\274 \370\276<\253\026\222<:E\276<\374\322\202\275\027\345\223;7f4\274\"jk=\211\367\364=\252\273A\275\335\014r\274\336^\343\273J\237`\275\216kp<\356\334[<\376\322T\275j\350\274\275B9\352<\226\323\321=>\211\006;[T!\274\014r\301<\257\366H\275\034\000\375\273\260\240\004=\213\207\304\275v\\\025\275\277x\211=\270kW=\030\270\263\274\354v\306\274\261\244\373\274Z\231q\275\266\250*=\314\255\020<\262\232\210=\022\244\200\275\210}\245=q?\r\275V-\347\274lv\256<\362M\376\274\200\214\271<\344\353*=\257\207\252\275e\032&\275o\200|<N[\025=\307\341+=i\000`=1n\277\2741<\377\2747\024f;[A&\275\220b\312<\023|\317\274\177{\212<@\234u\271C\331F\272\020~\246\274\371\016:\275\354\000\212\274\216\321\203=b\024\203<\201\2356<:\262\216\272\231\233\031=#+o\2741\244\004<\256\032<\275,9Q<G\3517=\240\346v=\006\330\253=\334\\\333\272\370J\007;\177f\016=\342\014Q\274/\034\210\275tQ\357\274:\\\217=q\205\212\275\375\246\256\274?a\234=\356\272N\275R;\362;O\004b\2757\224\"=\001<3=\216\002\300;\000\2204<\354\"\204;\274\223\223:\345\010F\274R\361\372\274D\213\034\275\036\365\337<Q\344\010<.\033\320<\016\233|\274/\343\033\275\252\014\354\274\224\005\201\275\366\032|=\0006\003\275waQ<\210\2506\275\274\345\'\275\026\212\262<\016g\374;7\223\233\275\212~\267\275\rs\241<\344X\254\274\304N\336<\023\024\211\275\211\\\215\274\010\244\227\275\274\374&=3;^\27480\275\274\305]\363;\253\342\317<\310t\n\275\373\377\240<\334\240\263=\332%f=\317-\207\272\347\364\210\275\227\0277\275i;}\275\006\263\377<\320\303%\275R\236N=4\020\207=P\360Q\275\010\310\005;\256\204\325;\372U<=\321\373}\275\233}\267;\260\364:;\251F\"\275:~\362\274\250\250\273<\233\241)\275\201#\256<e\274\021;\201h3\274\021<_<\t_\275;\336W\341:>\275\240\274m\035\250\2744\276\370\273\276\367\240\274q\331\260\275\220\3500=\256\260\014<F\303>\275\030\336\220<\270\245\001\275\036\366`\2748/\327\274d\332U<\375\224\013\274\265yV<d\336&=\3523b\275\027\306D\275\241\341\274<\245P\377\274\224\355\020=I2\337\273\356\367L<\251\230,\275~{\251=\031\265s\275\206\021\266\274\273-U=^\'\226<K\024V\275\256\325\264\274\030\200&\2734/\304\275L\234\006\275\374\322%\275\345L<\275\360\027\327\272zL\223=\235\375\253=\276-\'\274|\230\301\274\315>\240\274gC+\2740\214Q\273&\370\322\274\306MX=\205x\013=\177$\032=\336B\246<]H\010<\245\260!=\226,\216\274:\226\276=\200\201\205=\346\0236\272\023\005\243<H\360l<\276E\016=\352\033\301=\005\212\013\275#z\326\274\366\325\023\275\231\313*\2754\255\000\275\001\367&=R\323\340=\230KY\275\024\335\273\274\354\306P=\000\343\370;r\305\271=\220\253\354\274\027\312)<\\\211\274=\361\027G\275\304\n\360<~\271\201;\376\245u\275T\340\003\275Q\003?\275\252 \260\275\376C\017\275\250\343\315\273C\024\225\273E\247\'\275\257\301\311=\256\376]\275\354*\351;\275\224\022\275\201\251\036\274r\034=\273\030\006s<\361\261\205\274\3318\213=S~\214<\241\005K=\220\322\251\2746\235#=i3Y=\000o9\275\331\352+=D\371\031\275\3243q<rO\342\273\253\303|=\246\035\261=\264\341y<R\240\354\274\250}#\275\371h\215<\311O$\274*Ch<\342!\330;\370\026c\274 !\202\274r\223\263\274\276P\t\275\214\312\307\274\243\007W\274G\375\312<J\322W\275\033dX=\303\014\332\273\'i\261=U\376%<\271\317m\275>\214D=\331\026s=\324\2363\275\257}\017=\343+\347\274\226\037\335\275\364\031\312<\271\212\372;W+\027=\327(-\274/\201U\275\240?\304;/\334+=\016a\031=\315\032\254;\245p\374;\212(C\275gdO<>\013\203\273I\274W\275\216\254\345<U:\000\274\277\326\013\275\025\317\264<T)\263\274\227\001\235=\232.\300\274fm\305<\233\253\370\273\014q\375=\332\210c=\025F|;>@\357\274\020\002\376\274\031\t$=\335E\372=\321\r\235\274\270,\317\274o \252\275\316\346\035=\024\230\203=\322\210\216\274\0049\002<\024\245D\2740\257\007=\024\337J=g\356\333\273R\240y<+\214\204=&V\364<c\337}\275\220\240\254\275\225Mj<\317\210\342<\034P\230\275\\\203\202=q,r\275i{\317\274\032\220L=\352\004[\273w\260\321\274\003S\t\276\022B\206\275\177\2321\274`\321\320\274\234\277%\275J\372\017\275\024\214W=T\223\322<t\204\235<\322l\300<\331+\\=\361\002\250<wf\271\275\317U/<\305\257\205\274S\225\335<(\2133\275\370\021\235;@{^\274\276\213\030\275\361v\037=\266\306\362<k\347\362<=\315A\275\354+\017=\207\235\000=hE\000<\333\270\260\275\230\347\263<\375\243\230\275\3512\277\274m\266>=%|Q\275\031\0372=v\240\202=\330\305\014\274\353\321\206\275\2751\246=2\342Y=\254\330\260<\214Vt\275&w\002\274\265\rk\274a\202\004\2755\230\020=9\"[=\315\255\236<{\301/<bif\274gh)\275M\374\306<i\351\200<\372\r\221=\261\227\261\273\363\266\347\274`\310\231=\230lt\275)\305\356<g\211o=\2239\036=\014`\343<\2635m\275\201}X:\025A\003=q\373$\275\254\303\256<\347\367\212\274\237i\234=d\322Z\275\355\017\"\275\025{#=\345U\251=\274&\004\275\231q\276\274\246\311q\275\003\234\346<\253=R=\343\333}=\203\356G\274\307\232v\274\254\242\351<T\374\342\2757?\001\275\312*\003\275\257\215A=\273\257\307<n@\213\274\372\010P\274\254*\207=\007d\204\275\232\201q\275\234\034\204\273ec\344\274a\233P\273\237\327X\274y\315\245\275O2\323\275\013w!\275k\210\247=j\022\262;\n\356\315\273\240\237\010\275\366\355\366\274t\361\377<\342\227\205<iA\027\275\271\375\364\274\355\343\000=j\344\270\273\220\246\217\274\'\265\302\274\013\213k\274\3445\347\274J\377C=\231\203\236<]+S\275An\345:\347\370\017\274\254\201\343\275\254d?=*\316\312;\2728\036\274\274\252\204<j{\020<\256\271\202\275\254j\005\274b\253\264\274^\327\377;\272r=\273\217y\263=\320K\375;\026\302\n\274\177\253\237\274\213\277m\275\233\007{=x\205\321;\335\222\347<C\265V\273\370\222J< \260\202\273\363\351\235<\004\323~=\257\221\344;\254\262 =\356\027\202;g~\250<\202\200\277\274{\226\224\274D\311\306\273\377Nr\274\253\233\211\275Dq\300\275\235\271\314\274\373\311\270<\256\267\027=\014\324\326\2732\245\004\275\312JP=\316H\222\275\246]T<\377\020\314\274i@\233<^\365/\275\247\232\272<\274Qs\273^I\213<l\343\324<D\330_\275\375\260q=\220\002!=\265\355\266<\020\r\240\273\305m\346<\275I\263;\271-\260;\311\000\020=\177r\301<\256\277\024<4W(\275\346\001+\274\302\250^<\206$\230;\334Dw9\234\366\265\274_\372\224<\267\240w=\223\2264\275\373,\213\275\332&\251\273\370\265F=\030\330\324<\341\313\247;\023\0029\275*\t3=q\314\234=\347\364?\274\265\272\200\275Y\035\322\273\206\232\255<\340\214\306=\340}\205\275\307\352)\275\177\261\257=\255\264\'<\263Vs\275\344H\031=\\2\272\274\206\216<\275}\233\014:-\206\221;\235c\347<J\270\270\274\256\276\275=K\235\210;\ng\370;\014\020,\274\277\367\225=\033Sr\275\210\362\254\274\020\222\266=L\274\215\274h\355\234\275\312:\243=\366/7\274\376\342,=Cn\255\275aH\035\274\367\177\024\275=\035$<_$\257=\300\014\230=,Z\374<\267Zy;\307\354\210<\355\361_\275\210\312\224\274\0228\334\274x\241#=\2276D\2752\235\000=\223D\227=\263\265=\275~K\006\274\\\347\312;\321\351\305\274\000\377Q=\r\016\303\273a\021\000\275!\336\224<\373\016\213=\343\3720\275Pc\037\275Q\334c=\303ah;\tp\251<\352\237\010>Y\362\032\275\300\350,\274\206C\007=\371/-<W\277p<\211\250\'<\356\256\344<(BU\275\214\367W\274\345\177\014=\332yj<\222\331\343<s\027\212<\300\247\263\275\347\026\036=\360\275\354<\313\206\257\275K\260\r\274\322\201\2159\312\332\367\274\373\224<<\274\267\003:\325\253.<\277\tq<oX\006>{\025\"=\231v\315\274\324\327\232\275\006D\340\274\372\201c\275\272\325\020<\2177\017=\221B\t<\206)\245;|\247R=\302\371\020=J\022k=\303\010\254\275\306\363\001\275&\234\001\275\210D\262<B|c<\035\360\312\274\301\253f={P\374\274\306\212K\275\372\310\232\274x\254m=q\344\217\275e\016Y\275\215\326\230\275\242$\302\274G6t\275e\225\032\272P4X\275s\010l;\351\036\227\272Vt\375<\371\363\250\274W\032\025<Wf\026=|\203F=P/\325<\377\300\323<\332\242\312;\301^\016<\230&\352<x\346\207\275mW\237=\303i\317\273\337\321!;\005g\\\274dE\032\273U\273\232\275|\267\231\273\250@v=\037\336\326\274\355,\355<\222\260p\274\331\225b=\251\226\027\275\212 C=\253L\334<\267Im\274\272\212_\275\203s\245\274@\007\301\274Pqq\274\027:^<\217b\246=S\371\235\275\263\036\221<\"\217\344\275bz\204\275T\200\265\275h\320N\272\"\351\361;\024\220F\274\000d\377<\241\000\017=\342%4\272 A\311<W\342\036\274\333\\&=\341\033\353\274\266]o=\260b\023<\022QK=>)\330<\005\024\021\275r\"\016=c\005n=\006\214\300\275o\236\245=\006\023\304;\264\322~\275\224\247|<X\307C\275\021a\207<\262\2245=\374*\302<\316\261c\275\347B\200\275h\252\305:\363\305\265=]RL<\212\224\013\274\217\346{\274\337O\320<\322\367\226\275<\354\270==m\037>\256\206#=\304\001\350\274\225\223_\274\316\374\212\274\221\370#;\337\347\331\274\373\216:<\314\205\004<\201\321\234=\225\017\250\275\005\\e=\344\324]<\321ug\275\217)0=S\345\006\275\353\'\203\274\006\347\236;\265%\035=\\\t\206\270\235\3657\274z7\035\273\020\366\306=\215\035\207;\270o <\256\336\217\274@\202\006\275\337\335\260\274P\265\267\272b\177\003<\250\366!;z\234\017<\332\301\001=\034\254\023=\n\325\265=\226\246\237<:\347\362\275\317\016\300\274\016\332=\275\217\022\217\272\363\322\031<tf\346;\213\357\016:R\321\356\274\213\221\251\270\263F\213\274\035\302*\274\233\331\377;\370\016>=\036\320\257\275q\341\237<I\253f\274\233:\003=\006\010\013=|O\376\274U\211\017=\324\033n=p1n\275\275\207\357\274\013\321\323\273\236\364!\275#=\246\275\230\357\265\274f\345\312\274\262?B\275b\372\373;R\270%<\':I<H\342\237\275o$(\274\301\244s\274\030\266\350<\362\211\376;<\275L\275\0014\377<\362\253.=A\000\205\272\222\210i\274\330Q\204\275\327\255\033<#\236\377\2742\374\270\275\030\r\344\274\242*\032=P\264i\275\001\233\363\274\322#\237\2747\242\306\272\232\030+:T\355Y=\363(\332<\326\262\267<\347re\274b\266\332\274AH,=X/9\275v\277\017\272!\251\210\275\236&\330\274\376V\347=\356\276\250\275O\0033\275\036u\245\274\374\024q;\273\234V<\213\375\215\2753\321\230\274\220\340\240\274\205\254\267\275\360\260d<\343\003\221<\033\233\202\275\246!P\274\2123\307<X\244\217;H=\202\274s?\003\274E{\236\273y/\217\274\004+\036=\373hJ\273\207\323\327;\005\274\242<+\033\006\275\263^u\275\315R\206;\334\264\021\275G\377[<U<\370<T\361\231\274\236\355\216=\241*\307\275mV\202\273\020n-\274\223Z*\275\365I\030\275\366W\232\275\332\350\253<D\331e=\3032\242\274^]\307\275\026\277\325\273*\325\300\274\317\377u=\216Ad=\336\021\350\273v~/\275\"\317\310\274\004\345\211;\n\351\253\274\352[z\275.\251\345<G]\n\274\271\304<=\371\235{;a\376\256\273\\\177\202<\215)\265\275\027+\205=7XS=\232fp=\263\210\212<{\222u<\263\206\202<p\351*\275\237Y\313\274\204\212\026=\342<\354;\".\023<\254\324\036=\265\260\246<z\260p\275\310\205\001\274\253j\000\275\034\215?=h\361\344<\340\312\211<b\246\313=\261\346\300<K\337H=7\342)\275\253\347\260\274\332Y\304=@\343\334\273}h\302\275\026\241\312\274\300\364\230\274\031E\216<\022~I=/\307\255=\344\332F=4L\201\2751\\0\275%\377\253=l\207\324<\312\026@\274\265:m=b\372\204<,\335F=\320M~\274\357\215%<@\3157\275s\312\255<y\t\320\273<\274\304\275\353Va\275\355\036X<IY\273<\3554\312\274`\267y\274R\277\333\274M\344\221<\035V\267<\014\262\206\274g\003\243\275\361W[<\314\350[\275H+\005=pC\371;\355\273\250\274\310x\275\274\245\371\215\274\230N\025\274\201\204\306\275\264p\027<\364\361\316\274\342\'p=u)\010=|D9=\347\240\022\273I\212\224\274\261\245\'=\271p\372<Wp\253<@\375\001\275\303\350$<\'\366\177=\200^\037=\327\370y\274f\342\"=\367\276\336=\217\211\370\273rG\221=\321a\026=\336A6<\320\332=<\252r\007=V\036\326\274\302\222\222<\302\366.<s\310\224;\326i\t=\252n\035=v[\352\272\255\026\210\275\273t\032\275\312\241\220\274=\303\314\274b\330r\275\343\302F\273\323?P\275 \036n\275\300,v\275\005\013\344\274\370\313\023\275B&Y\275\214~\214<\030\243\t\275\226\014\364\274\323g\200<F<V\275\265\221\032=\372\021\010\275B\364\201\275qmJ=\357\311[\275$\365.<\201\274)\272\3447\006=\030\236\237\275\316\277\324<\300\035\023=}\335\320</q\233\274\000\340\271=\275R\214\275[I\246<.\263v\2749F\272<\362$\352:\010\375|\275\335E\340<\217\214\200\275\221{\315\273\374\247\306=X\225\365\274p`\201\275\377or\270\3541\372\275\303\206\314<\243)\312\274T@\032=~A-\275\252J\212=\nw\177\272\275\331\250\2745\222\326\2740\373\024<z(\037\275\2125\016\275^A\001=\350&\271<\031\004\035=\330\020-\274@lt<>s\305<\n\340\034\274j7\207\274\337\227\014\275\317\207\010\275\256h\024=\300^1=\352\004\222\274\360\352\346\274\3010\017\275\213\357j=\335\007,\275E\337\214\273\326 \342<\262\211\033=\355fo=\264\251\215\275\254\003\027\275\322\326\211\275\370\310\365=Ec\031\275d\204^\274k\310\n=eV\014=\214\271\214=E\212\322\275\305a\020\274\267\330\304\275\325\350\200\275\223\214L\274\253\010\264<+\374q\275k&<\275\322Y\225=CYT\275\371\204\216=;F\316<\277,\355<\224\303\207<\330\232\\\274\367\205:\275\316/\241:\330\340\312\274\003(M=\324-\\\274\317\007\244\274\261\234\272<\323ke=\253$B<\346Bj=\371\255c\273w\033\030\275\232X\242=$\325\177\275]]a\274\220P}<v3\034\275\353\347j\275J\353J;\204yC<OH1\271\261\0250\275\310G\335=\'\303\221=\316\211V\275\325gC=\344\265\231=#\372\200\275\204\222\256=\323\370*\275\255\263\352:\365\227Q\275\n\3465\275\301\352\251\274K\027<=\004>\024\275\321\274\227\273\365\231\255\275\203x\210\275\252e\026<\334jJ=\377\316\251\274\262\337W\274\365\ri\273&\233\262\274Tz\274\275\256\366J=`L\025=\333\024\024\275\362\2751=\027v\254<+\023&<q\336\231=[\020o=\r\202\233\274\3459)=\014\275f\275\333\250B=\1779B<h\201\226<\355\273\326\273\316\\\020<\341\024\212\275\027\273\037<N\246\022=\251\311\204\275\345\335Z=\266\314\250<\303\301\275<\013\025\231=2!\033=\241\317\344\274\007\264<\275~e\216<\203M\266<p%%\274y\345\225<R-\205\274r\375\344=\007\234\235<\257\363\376\273\276\265\203;\320\237&\274\251,\203\275`\321\017\275\010L\007= @\360<\320\254\243<\033\343\"<\005BL\275\225\0355\275}\372\242\274\264\026$\275\266\2272;\336E3<\235x\217\273}E\206\274\331\207\r=q\240\275=\336\370\226\275\265A\212<\316\222\240\274\304\236$=?\342b\275\327\377M=\306M\t<\263\351C\274\331\031x<c\'\016\275N^\276;\013\251\2177\370\266H<\356\237c\275\024\3764\275\344\010\330;\360\316\310<\266v\225\274\212\371\240=+\263\004>\352\366\202\273,N\241\274\020\277\243<\237\037\023=),